<unk>	0
<s>	0
</s>	0
<0x00>	0
<0x01>	0
<0x02>	0
<0x03>	0
<0x04>	0
<0x05>	0
<0x06>	0
<0x07>	0
<0x08>	0
<0x09>	0
<0x0A>	0
<0x0B>	0
<0x0C>	0
<0x0D>	0
<0x0E>	0
<0x0F>	0
<0x10>	0
<0x11>	0
<0x12>	0
<0x13>	0
<0x14>	0
<0x15>	0
<0x16>	0
<0x17>	0
<0x18>	0
<0x19>	0
<0x1A>	0
<0x1B>	0
<0x1C>	0
<0x1D>	0
<0x1E>	0
<0x1F>	0
<0x20>	0
<0x21>	0
<0x22>	0
<0x23>	0
<0x24>	0
<0x25>	0
<0x26>	0
<0x27>	0
<0x28>	0
<0x29>	0
<0x2A>	0
<0x2B>	0
<0x2C>	0
<0x2D>	0
<0x2E>	0
<0x2F>	0
<0x30>	0
<0x31>	0
<0x32>	0
<0x33>	0
<0x34>	0
<0x35>	0
<0x36>	0
<0x37>	0
<0x38>	0
<0x39>	0
<0x3A>	0
<0x3B>	0
<0x3C>	0
<0x3D>	0
<0x3E>	0
<0x3F>	0
<0x40>	0
<0x41>	0
<0x42>	0
<0x43>	0
<0x44>	0
<0x45>	0
<0x46>	0
<0x47>	0
<0x48>	0
<0x49>	0
<0x4A>	0
<0x4B>	0
<0x4C>	0
<0x4D>	0
<0x4E>	0
<0x4F>	0
<0x50>	0
<0x51>	0
<0x52>	0
<0x53>	0
<0x54>	0
<0x55>	0
<0x56>	0
<0x57>	0
<0x58>	0
<0x59>	0
<0x5A>	0
<0x5B>	0
<0x5C>	0
<0x5D>	0
<0x5E>	0
<0x5F>	0
<0x60>	0
<0x61>	0
<0x62>	0
<0x63>	0
<0x64>	0
<0x65>	0
<0x66>	0
<0x67>	0
<0x68>	0
<0x69>	0
<0x6A>	0
<0x6B>	0
<0x6C>	0
<0x6D>	0
<0x6E>	0
<0x6F>	0
<0x70>	0
<0x71>	0
<0x72>	0
<0x73>	0
<0x74>	0
<0x75>	0
<0x76>	0
<0x77>	0
<0x78>	0
<0x79>	0
<0x7A>	0
<0x7B>	0
<0x7C>	0
<0x7D>	0
<0x7E>	0
<0x7F>	0
<0x80>	0
<0x81>	0
<0x82>	0
<0x83>	0
<0x84>	0
<0x85>	0
<0x86>	0
<0x87>	0
<0x88>	0
<0x89>	0
<0x8A>	0
<0x8B>	0
<0x8C>	0
<0x8D>	0
<0x8E>	0
<0x8F>	0
<0x90>	0
<0x91>	0
<0x92>	0
<0x93>	0
<0x94>	0
<0x95>	0
<0x96>	0
<0x97>	0
<0x98>	0
<0x99>	0
<0x9A>	0
<0x9B>	0
<0x9C>	0
<0x9D>	0
<0x9E>	0
<0x9F>	0
<0xA0>	0
<0xA1>	0
<0xA2>	0
<0xA3>	0
<0xA4>	0
<0xA5>	0
<0xA6>	0
<0xA7>	0
<0xA8>	0
<0xA9>	0
<0xAA>	0
<0xAB>	0
<0xAC>	0
<0xAD>	0
<0xAE>	0
<0xAF>	0
<0xB0>	0
<0xB1>	0
<0xB2>	0
<0xB3>	0
<0xB4>	0
<0xB5>	0
<0xB6>	0
<0xB7>	0
<0xB8>	0
<0xB9>	0
<0xBA>	0
<0xBB>	0
<0xBC>	0
<0xBD>	0
<0xBE>	0
<0xBF>	0
<0xC0>	0
<0xC1>	0
<0xC2>	0
<0xC3>	0
<0xC4>	0
<0xC5>	0
<0xC6>	0
<0xC7>	0
<0xC8>	0
<0xC9>	0
<0xCA>	0
<0xCB>	0
<0xCC>	0
<0xCD>	0
<0xCE>	0
<0xCF>	0
<0xD0>	0
<0xD1>	0
<0xD2>	0
<0xD3>	0
<0xD4>	0
<0xD5>	0
<0xD6>	0
<0xD7>	0
<0xD8>	0
<0xD9>	0
<0xDA>	0
<0xDB>	0
<0xDC>	0
<0xDD>	0
<0xDE>	0
<0xDF>	0
<0xE0>	0
<0xE1>	0
<0xE2>	0
<0xE3>	0
<0xE4>	0
<0xE5>	0
<0xE6>	0
<0xE7>	0
<0xE8>	0
<0xE9>	0
<0xEA>	0
<0xEB>	0
<0xEC>	0
<0xED>	0
<0xEE>	0
<0xEF>	0
<0xF0>	0
<0xF1>	0
<0xF2>	0
<0xF3>	0
<0xF4>	0
<0xF5>	0
<0xF6>	0
<0xF7>	0
<0xF8>	0
<0xF9>	0
<0xFA>	0
<0xFB>	0
<0xFC>	0
<0xFD>	0
<0xFE>	0
<0xFF>	0
▁“	-0
。”	-1
一个	-2
我们	-3
他们	-4
没有	-5
什么	-6
孩子	-7
现在	-8
这个	-9
？”	-10
世界	-11
自己	-12
：“	-13
了一	-14
看到	-15
……	-16
！”	-17
中的	-18
你们	-19
可能	-20
知道	-21
的一	-22
地球	-23
太阳	-24
已经	-25
就是	-26
的人	-27
时间	-28
人类	-29
可以	-30
上的	-31
那个	-32
大的	-33
这是	-34
不是	-35
这样	-36
起来	-37
太空	-38
..	-39
宇宙	-40
到了	-41
，“	-42
程心	-43
这种	-44
他的	-45
出现	-46
开始	-47
这些	-48
一样	-49
最后	-50
东西	-51
如果	-52
两个	-53
有一	-54
所有	-55
只是	-56
这时	-57
罗辑	-58
的大	-59
那些	-60
来的	-61
发现	-62
这里	-63
看着	-64
国家	-65
是一	-66
它们	-67
部分	-68
人的	-69
很快	-70
进行	-71
还是	-72
系统	-73
只有	-74
自己的	-75
孩子们	-76
文明	-77
色的	-78
一次	-79
人们	-80
都是	-81
飞船	-82
三体	-83
怎么	-84
然后	-85
面的	-86
下来	-87
工作	-88
感觉	-89
因为	-90
了一个	-91
还有	-92
研究	-93
出来	-94
时代	-95
的是	-96
它的	-97
这一	-98
信息	-99
城市	-100
我的	-101
技术	-102
声音	-103
舰队	-104
这么	-105
▁在	-106
空间	-107
的事	-108
那么	-109
出的	-110
同时	-111
完全	-112
的地	-113
世纪	-114
是一个	-115
出了	-116
消失	-117
突然	-118
华华	-119
也不	-120
所以	-121
成了	-122
产生	-123
问题	-124
——	-125
在一	-126
需要	-127
一直	-128
生活	-129
应该	-130
她的	-131
计算	-132
?”	-133
不到	-134
任何	-135
的小	-136
……”	-137
当然	-138
美国	-139
在这	-140
基地	-141
我们的	-142
....	-143
速度	-144
正在	-145
进入	-146
那里	-147
社会	-148
只能	-149
以后	-150
仿佛	-151
存在	-152
整个	-153
真的	-154
他们的	-155
不能	-156
发生	-157
计划	-158
周围	-159
地说	-160
行星	-161
。“	-162
战争	-163
方向	-164
目标	-165
生命	-166
认为	-167
汪淼	-168
科学	-169
那是	-170
显示	-171
一种	-172
闪电	-173
林云	-174
甚至	-175
也是	-176
戴维	-177
下去	-178
不同	-179
的那	-180
空中	-181
由于	-182
长的	-183
恒星	-184
不会	-185
许多	-186
小时	-187
不可能	-188
历史	-189
过去	-190
几个	-191
三个	-192
十分	-193
最高	-194
眼睛	-195
目光	-196
看看	-197
以前	-198
武器	-199
你的	-200
立刻	-201
发射	-202
的东西	-203
是在	-204
▁我	-205
注意	-206
上去	-207
后来	-208
点点	-209
接着	-210
丁仪	-211
工程	-212
肯定	-213
第一	-214
成为	-215
状态	-216
巨大的	-217
　　	-218
告诉	-219
飞行	-220
通过	-221
中国	-222
无法	-223
的话	-224
地上	-225
距离	-226
一片	-227
几乎	-228
不过	-229
博士	-230
太阳系	-231
电脑	-232
能够	-233
处于	-234
成的	-235
第二	-236
计算机	-237
似乎	-238
位置	-239
引力	-240
下的	-241
着一	-242
不知道	-243
。"	-244
时候	-245
变成	-246
听到	-247
小的	-248
文洁	-249
有一个	-250
其他	-251
二十	-252
▁但	-253
公里	-254
觉得	-255
其实	-256
屏幕	-257
控制	-258
继续	-259
看到了	-260
是的	-261
发出	-262
点点头	-263
回答	-264
游戏	-265
感到	-266
世界的	-267
另一	-268
虽然	-269
首先	-270
▁"	-271
黑暗	-272
中心	-273
有人	-274
那样	-275
想象	-276
刚才	-277
,“	-278
第一次	-279
一些	-280
的光	-281
前的	-282
地面	-283
好像	-284
智子	-285
叶文洁	-286
执政	-287
爆炸	-288
领导	-289
运行	-290
来自	-291
了一下	-292
像一	-293
其中	-294
▁这	-295
起了	-296
一切	-297
为了	-298
轨道	-299
摇头	-300
加速	-301
的一个	-302
那时	-303
全部	-304
情况	-305
力量	-306
过了	-307
再次	-308
渐渐	-309
球状	-310
纪元	-311
光速	-312
有些	-313
对于	-314
天空	-315
当时	-316
有的	-317
这样的	-318
总统	-319
球状闪电	-320
大家	-321
即使	-322
所有的	-323
都在	-324
建筑	-325
一起	-326
多的	-327
．．	-328
执政官	-329
克斯	-330
将军	-331
面壁	-332
之间	-333
飞机	-334
到的	-335
一下	-336
看上去	-337
不要	-338
希望	-339
变得	-340
会议	-341
菲利	-342
显然	-343
电话	-344
表面	-345
菲利克斯	-346
年前	-347
才能	-348
离开	-349
结果	-350
AA	-351
多少	-352
出现了	-353
复杂	-354
这次	-355
，”	-356
自然	-357
下面	-358
于是	-359
父亲	-360
确实	-361
不可	-362
每个	-363
为什么	-364
!”	-365
也许	-366
思想	-367
星星	-368
就在	-369
明白	-370
除了	-371
国的	-372
年的	-373
选择	-374
大部分	-375
外面	-376
就像	-377
上帝	-378
年轻	-379
物理	-380
住了	-381
物质	-382
真正	-383
满了	-384
上了	-385
来说	-386
理解	-387
并不	-388
之一	-389
动的	-390
摇摇头	-391
长时间	-392
孩儿	-393
想到	-394
到达	-395
相信	-396
爸爸	-397
过来	-398
的世界	-399
公民	-400
分钟	-401
必须	-402
联合	-403
发动	-404
妈妈	-405
▁这时	-406
简单	-407
......	-408
电子	-409
过程	-410
沉默	-411
能量	-412
观察	-413
刚刚	-414
政府	-415
很多	-416
北海	-417
现实	-418
地看着	-419
去了	-420
一定	-421
目前	-422
重要	-423
决定	-424
建立	-425
随着	-426
来了	-427
人类的	-428
走了	-429
的地方	-430
上面	-431
在这个	-432
之前	-433
攻击	-434
我是	-435
软件	-436
的孩子	-437
透明	-438
消失了	-439
今天	-440
后的	-441
说的	-442
方式	-443
试验	-444
面上	-445
说话	-446
的时间	-447
后面	-448
方的	-449
面前	-450
空气	-451
是什么	-452
冬眠	-453
理论	-454
我想	-455
新星	-456
章北海	-457
安全	-458
另一个	-459
体的	-460
主要	-461
出一	-462
水滴	-463
站在	-464
终于	-465
而是	-466
她们	-467
直升	-468
使用	-469
大厅	-470
了起来	-471
精神	-472
都不	-473
超新星	-474
清楚	-475
也没有	-476
发动机	-477
的声音	-478
天明	-479
学家	-480
阳光	-481
意识	-482
的巨	-483
作为	-484
坦克	-485
组合	-486
直升机	-487
你是	-488
旁边	-489
毁灭	-490
太空中	-491
有什么	-492
最高执政官	-493
作用	-494
三十	-495
不知	-496
仍然	-497
恢复	-498
并没有	-499
内部	-500
形状	-501
蓝色	-502
过的	-503
云天明	-504
二维	-505
一般	-506
国土	-507
观测	-508
一阵	-509
你们的	-510
奥拉	-511
开了	-512
一个人	-513
就会	-514
正常	-515
指挥	-516
永远	-517
银河	-518
关系	-519
探测	-520
航行	-521
:“	-522
的一切	-523
恐惧	-524
的高	-525
这就是	-526
都没有	-527
▁他	-528
意义	-529
不了	-530
似的	-531
您的	-532
来越	-533
生存	-534
电视	-535
普通	-536
主席	-537
形成	-538
蚂蚁	-539
越来越	-540
一点	-541
大陆	-542
海洋	-543
的手	-544
结束	-545
数量	-546
结构	-547
能力	-548
代表	-549
喜欢	-550
身上	-551
五十	-552
危险	-553
好的	-554
大量	-555
小梦	-556
恐龙	-557
成功	-558
朋友	-559
机器	-560
以为	-561
变化	-562
相当	-563
包括	-564
者的	-565
军队	-566
大史	-567
容易	-568
无数	-569
看不	-570
回到	-571
南极	-572
图像	-573
地方	-574
句话	-575
平静	-576
得到	-577
之中	-578
远处	-579
一条	-580
眼镜	-581
要求	-582
不断	-583
共和	-584
北京	-585
我说	-586
得很	-587
看了	-588
出去	-589
根本	-590
关一	-591
来到	-592
聚变	-593
FG	-594
一百	-595
意思	-596
秒钟	-597
▁罗辑	-598
重新	-599
关一帆	-600
在那	-601
样子	-602
金属	-603
沃恩	-604
身体	-605
留下	-606
事情	-607
组织	-608
里面	-609
？！”	-610
千米	-611
原因	-612
原子	-613
他说	-614
同样	-615
唯一	-616
战舰	-617
而且	-618
地球的	-619
像是	-620
基础	-621
至少	-622
指着	-623
走到	-624
产生的	-625
努力	-626
天文	-627
人都	-628
停止	-629
史强	-630
基本	-631
辐射	-632
最大的	-633
比如	-634
那种	-635
东方	-636
找到	-637
电磁	-638
一名	-639
他在	-640
准备	-641
面对	-642
的时候	-643
直接	-644
穿过	-645
联合国	-646
星的	-647
缓缓	-648
运动	-649
启动	-650
士兵	-651
导弹	-652
发展	-653
新的	-654
森林	-655
模型	-656
会儿	-657
日本	-658
经过	-659
在一起	-660
人员	-661
盯着	-662
各种	-663
在大	-664
如此	-665
儿子	-666
奇怪	-667
白色	-668
轻轻	-669
左右	-670
爆发	-671
文明的	-672
坐在	-673
就能	-674
数据	-675
可能是	-676
外的	-677
规模	-678
本来	-679
直到	-680
移民	-681
都有	-682
难以	-683
项目	-684
不管	-685
军官	-686
把它	-687
未来	-688
特别	-689
就要	-690
范围	-691
在这里	-692
的速度	-693
公元	-694
办公	-695
打开	-696
环境	-697
只要	-698
完成	-699
星环	-700
笑着	-701
很难	-702
敌人	-703
还在	-704
宇宙的	-705
看到的	-706
面壁者	-707
国际	-708
我不	-709
负责	-710
那一	-711
＝＝	-712
件事	-713
打击	-714
是个	-715
老师	-716
考虑	-717
发出的	-718
广阔	-719
移动	-720
医生	-721
地问	-722
绝对	-723
▁他们	-724
宇宙中	-725
工程师	-726
现在的	-727
艺术	-728
▁她	-729
方面	-730
背景	-731
深处	-732
联系	-733
转向	-734
接触	-735
走进	-736
部队	-737
▁程心	-738
变成了	-739
千万	-740
双眼	-741
屏幕上	-742
先生	-743
几十	-744
号的	-745
命令	-746
实验	-747
航天	-748
▁我们	-749
三体世界	-750
。。	-751
一步	-752
四个	-753
影响	-754
接近	-755
现代	-756
着的	-757
设备	-758
公主	-759
确定	-760
但在	-761
大气	-762
的水	-763
超级	-764
通讯	-765
也没	-766
别的	-767
参加	-768
好了	-769
哪儿	-770
房间	-771
操作	-772
至于	-773
转身	-774
瞬间	-775
让人	-776
使得	-777
大厦	-778
▁一	-779
很大	-780
抬头	-781
推进	-782
放到	-783
机会	-784
维德	-785
量子	-786
▁华华	-787
三维	-788
令人	-789
时的	-790
地球上	-791
▁当	-792
创造	-793
望远	-794
相比	-795
前面	-796
基因	-797
舰长	-798
事实	-799
战略	-800
责任	-801
远的	-802
首长	-803
丽的	-804
让我	-805
雷迪	-806
女孩儿	-807
望远镜	-808
这一切	-809
多了	-810
数学	-811
走去	-812
里的	-813
在一个	-814
干什么	-815
黑色的	-816
亚兹	-817
光的	-818
高的	-819
雷迪亚兹	-820
反射	-821
子弹	-822
玻璃	-823
辛妮	-824
改变	-825
政治	-826
画面	-827
解释	-828
："	-829
星云	-830
滑膛	-831
真实	-832
达到	-833
。”“	-834
它们的	-835
另外	-836
只剩	-837
星空	-838
比亚	-839
水娃	-840
起身	-841
二百	-842
吞食	-843
地下	-844
子的	-845
汽车	-846
白色的	-847
一声	-848
之后	-849
带着	-850
时刻	-851
条件	-852
死亡	-853
说着	-854
出来的	-855
仔细	-856
威慑	-857
总是	-858
红色	-859
进来	-860
最后的	-861
有一种	-862
下了	-863
也有	-864
我在	-865
核弹	-866
终端	-867
经历	-868
◎◎	-869
各个	-870
银河系	-871
主义	-872
兴趣	-873
大地	-874
最近	-875
每天	-876
记得	-877
世界上	-878
了下来	-879
的感觉	-880
木星	-881
电梯	-882
但这	-883
内的	-884
属于	-885
小小的	-886
的目光	-887
看不到	-888
没有任何	-889
作战	-890
兴奋	-891
反应	-892
指指	-893
边缘	-894
一颗	-895
战场	-896
▁现在	-897
复杂的	-898
力的	-899
向前	-900
熟悉	-901
见到	-902
周围的	-903
不再	-904
办法	-905
尘埃	-906
燃烧	-907
共和国	-908
太阳的	-909
动着	-910
委员	-911
的心	-912
色彩	-913
科学家	-914
还没有	-915
十多	-916
口气	-917
大多	-918
故事	-919
边的	-920
太空城	-921
不得	-922
专业	-923
全国	-924
危机	-925
慢慢	-926
程序	-927
等待	-928
光中	-929
外星	-930
很少	-931
般的	-932
了几	-933
定的	-934
恩斯	-935
拥有	-936
起的	-937
我知道	-938
人民	-939
保持	-940
可怕	-941
小心	-942
脸上	-943
在那里	-944
桑比亚	-945
一块	-946
万年	-947
但他	-948
内容	-949
失败	-950
形的	-951
思维	-952
摧毁	-953
看来	-954
，"	-955
大人们	-956
希恩斯	-957
信号	-958
声说	-959
质量	-960
出了一	-961
分之一	-962
每一个	-963
一只	-964
哈哈	-965
极其	-966
目的	-967
记录	-968
其中的	-969
的位置	-970
　　　　	-971
万有	-972
他是	-973
回来	-974
帝国	-975
我就	-976
战斗	-977
早就	-978
生物	-979
疯狂	-980
维持	-981
对着	-982
死了	-983
第三	-984
精确	-985
什么都	-986
一位	-987
如同	-988
急剧	-989
持续	-990
月球	-991
某种	-992
要是	-993
走出	-994
防御	-995
黑色	-996
一眼	-997
亮的	-998
参谋	-999
很好	-1000
母亲	-1001
灾难	-1002
证明	-1003
谢谢	-1004
无限	-1005
最终	-1006
清晰	-1007
老人	-1008
者们	-1009
系统的	-1010
万有引力	-1011
可以看到	-1012
干扰	-1013
生的	-1014
的火	-1015
窗口	-1016
郑晨	-1017
注意到	-1018
这是一个	-1019
增加	-1020
所在	-1021
浮在	-1022
真是	-1023
记忆	-1024
迅速	-1025
这两	-1026
重的	-1027
集中	-1028
大会	-1029
更加	-1030
本身	-1031
照片	-1032
玩儿	-1033
做的	-1034
认识	-1035
出现的	-1036
制造	-1037
半个	-1038
卫星	-1039
材料	-1040
用的	-1041
让他	-1042
也在	-1043
吃惊	-1044
大脑	-1045
组成	-1046
衣服	-1047
时代的	-1048
．．．．	-1049
介绍	-1050
如何	-1051
实现	-1052
广播	-1053
接受	-1054
数字	-1055
镜面	-1056
最后一	-1057
仍在	-1058
减速	-1059
惊奇	-1060
新闻	-1061
机构	-1062
模拟	-1063
网络	-1064
国家的	-1065
是从	-1066
动物	-1067
天线	-1068
很有	-1069
眼前	-1070
经济	-1071
见过	-1072
这事	-1073
像一个	-1074
具有	-1075
区域	-1076
天的	-1077
想法	-1078
沙漠	-1079
紧张	-1080
西亚	-1081
资料	-1082
资源	-1083
上方	-1084
不动	-1085
五个	-1086
大小	-1087
大牙	-1088
表现	-1089
手中	-1090
接收	-1091
直径	-1092
但现在	-1093
着一个	-1094
组合体	-1095
人在	-1096
化的	-1097
思考	-1098
王星	-1099
语言	-1100
都被	-1101
人群	-1102
我要	-1103
泰勒	-1104
球体	-1105
行动	-1106
！"	-1107
世纪的	-1108
巨大	-1109
年后	-1110
我也	-1111
晓梦	-1112
红岸	-1113
开始了	-1114
中央	-1115
了解	-1116
利亚	-1117
最大	-1118
科幻	-1119
默默	-1120
没什么	-1121
光年	-1122
哪里	-1123
想想	-1124
有了	-1125
百万	-1126
长长的	-1127
上空	-1128
元首	-1129
度的	-1130
放在	-1131
沿着	-1132
远方	-1133
那是一	-1134
使命	-1135
华北	-1136
得多	-1137
晚上	-1138
的海	-1139
苏醒	-1140
使他	-1141
充满	-1142
展开	-1143
关键	-1144
在他	-1145
广场	-1146
建造	-1147
影像	-1148
知识	-1149
虚拟	-1150
覆盖	-1151
面积	-1152
黑洞	-1153
一根	-1154
不起	-1155
分别	-1156
到处	-1157
回去	-1158
困难	-1159
情报	-1160
正是	-1161
烈的	-1162
看去	-1163
行的	-1164
路上	-1165
这就	-1166
远远	-1167
也就是	-1168
的人们	-1169
第一个	-1170
元帅	-1171
名字	-1172
大了	-1173
巨型	-1174
最初	-1175
欧洲	-1176
海中	-1177
白冰	-1178
还要	-1179
附近	-1180
发生了	-1181
年轻人	-1182
探测器	-1183
的信息	-1184
之外	-1185
公司	-1186
按照	-1187
显得	-1188
眼中	-1189
罗斯	-1190
陷入	-1191
出一个	-1192
办公室	-1193
的研究	-1194
两人	-1195
关于	-1196
前方	-1197
各国	-1198
头发	-1199
是不	-1200
进去	-1201
了一些	-1202
充满了	-1203
孩子的	-1204
光芒	-1205
后者	-1206
它是	-1207
板上	-1208
说完	-1209
都会	-1210
物理学	-1211
真正的	-1212
飞行员	-1213
其它	-1214
十几	-1215
四维	-1216
男人	-1217
都能	-1218
委员会	-1219
受到	-1220
是最	-1221
艰难	-1222
设计	-1223
太空艇	-1224
但我	-1225
大校	-1226
说不	-1227
适应	-1228
飞快	-1229
▁……	-1230
从未	-1231
四十	-1232
在地	-1233
寒冷	-1234
年代	-1235
庄宇	-1236
心里	-1237
怎样	-1238
明显	-1239
昨天	-1240
有时	-1241
视着	-1242
还不	-1243
？"	-1244
白的	-1245
细节	-1246
驾驶	-1247
引力波	-1248
蓝色的	-1249
▁那	-1250
上升	-1251
上校	-1252
处理	-1253
失去	-1254
平面	-1255
得知	-1256
拿起	-1257
说明	-1258
他们在	-1259
有可能	-1260
伊依	-1261
别人	-1262
同志	-1263
呼吸	-1264
射击	-1265
少校	-1266
美的	-1267
这儿	-1268
透过	-1269
▁这个	-1270
伟大的	-1271
一天	-1272
你说	-1273
可是	-1274
成一	-1275
提供	-1276
还能	-1277
只剩下	-1278
并不是	-1279
更多的	-1280
红色的	-1281
会场	-1282
击中	-1283
子里	-1284
平线	-1285
或者	-1286
粒子	-1287
的工作	-1288
交流	-1289
全息	-1290
姑娘	-1291
居然	-1292
是否	-1293
而已	-1294
这话	-1295
重力	-1296
闪烁	-1297
降落	-1298
怎么样	-1299
人了	-1300
从来	-1301
掌握	-1302
星系	-1303
生态	-1304
神秘	-1305
足够	-1306
很大的	-1307
情况下	-1308
段时间	-1309
▁从	-1310
不多	-1311
威胁	-1312
子上	-1313
投入	-1314
星际	-1315
表情	-1316
阶段	-1317
感觉到	-1318
不在	-1319
参数	-1320
响起	-1321
孤独	-1322
完了	-1323
寻找	-1324
旋转	-1325
联邦	-1326
规律	-1327
证实	-1328
想起了	-1329
是因为	-1330
的方向	-1331
IN	-1332
不用	-1333
以上	-1334
分子	-1335
单位	-1336
工业	-1337
平原	-1338
战士	-1339
提出	-1340
断了	-1341
方案	-1342
梦中	-1343
神经	-1344
给我	-1345
表示	-1346
▁丁仪	-1347
广阔的	-1348
还有一	-1349
黑暗森林	-1350
他那	-1351
台上	-1352
性的	-1353
掩体	-1354
百多	-1355
穿着	-1356
返回	-1357
震惊	-1358
在他们	-1359
在空中	-1360
我们要	-1361
分之	-1362
命运	-1363
实际	-1364
熄灭	-1365
物体	-1366
称为	-1367
了许多	-1368
事实上	-1369
保证	-1370
含义	-1371
大学	-1372
成员	-1373
火焰	-1374
火箭	-1375
破坏	-1376
破壁	-1377
颜冬	-1378
▁这是	-1379
一部分	-1380
下来的	-1381
让我们	-1382
不停	-1383
只好	-1384
女人	-1385
好象	-1386
构成	-1387
法律	-1388
镜子	-1389
接着说	-1390
蓝色空间	-1391
超新星纪元	-1392
一支	-1393
他又	-1394
原来	-1395
向上	-1396
在海	-1397
庄颜	-1398
想像	-1399
意味	-1400
掠过	-1401
曾经	-1402
相对	-1403
见的	-1404
超过	-1405
▁汪淼	-1406
一切都	-1407
中间	-1408
分析	-1409
功率	-1410
喊道	-1411
回事	-1412
微微	-1413
比较	-1414
纷纷	-1415
行了	-1416
遇到	-1417
静静	-1418
历史上	-1419
城市的	-1420
宏电子	-1421
找到了	-1422
的事情	-1423
这两个	-1424
五年	-1425
你在	-1426
军事	-1427
刘欣	-1428
多么	-1429
大楼	-1430
张彬	-1431
文化	-1432
星球	-1433
看出	-1434
碎片	-1435
秘书	-1436
穿梭	-1437
递给	-1438
？！	-1439
▁戴维	-1440
的问题	-1441
个人	-1442
做出	-1443
天啊	-1444
尽头	-1445
彻底	-1446
打算	-1447
撞击	-1448
灿烂	-1449
的两	-1450
相互	-1451
警报	-1452
说过	-1453
高速	-1454
仿佛是	-1455
加速器	-1456
大量的	-1457
是一种	-1458
沈华北	-1459
几天	-1460
宋诚	-1461
寂静	-1462
很不	-1463
心理	-1464
模糊	-1465
正确	-1466
一会儿	-1467
你知道	-1468
只有一	-1469
的技术	-1470
的一部分	-1471
外部	-1472
我和	-1473
毕竟	-1474
相同	-1475
身边	-1476
避免	-1477
），	-1478
男孩儿	-1479
过程中	-1480
不时	-1481
也能	-1482
再说	-1483
地区	-1484
学习	-1485
已被	-1486
望着	-1487
澳大	-1488
监视	-1489
醒来	-1490
发现了	-1491
外面的	-1492
意识到	-1493
即将	-1494
大约	-1495
家庭	-1496
就不	-1497
崩溃	-1498
影子	-1499
报告	-1500
讨论	-1501
这座	-1502
失去了	-1503
就可以	-1504
的生活	-1505
的眼睛	-1506
美丽的	-1507
舰队的	-1508
计划的	-1509
飞船的	-1510
RA	-1511
以来	-1512
医院	-1513
咱们	-1514
存贮	-1515
愿意	-1516
程度	-1517
集团	-1518
雷电	-1519
▁林云	-1520
其他的	-1521
核聚变	-1522
漫长的	-1523
的光芒	-1524
这一点	-1525
澳大利亚	-1526
上来	-1527
地图	-1528
大人	-1529
描述	-1530
更多	-1531
有几	-1532
没人	-1533
烧火	-1534
生产	-1535
秘密	-1536
笼罩	-1537
等等	-1538
装甲	-1539
这条	-1540
这类	-1541
都很	-1542
队长	-1543
了一眼	-1544
是不是	-1545
没有人	-1546
空中的	-1547
穿梭机	-1548
进行了	-1549
不想	-1550
仅仅	-1551
军人	-1552
司令	-1553
坐标	-1554
大片	-1555
女儿	-1556
想起	-1557
点儿	-1558
高兴	-1559
俄罗斯	-1560
透明的	-1561
一张	-1562
上百	-1563
女孩	-1564
娃娃	-1565
学校	-1566
文斯	-1567
理想	-1568
聚集	-1569
解决	-1570
设想	-1571
下面的	-1572
全世界	-1573
十分钟	-1574
一时	-1575
古老	-1576
垃圾	-1577
夜里	-1578
宣布	-1579
心中	-1580
紧急	-1581
跟着	-1582
身后	-1583
一样的	-1584
天空中	-1585
我现在	-1586
▁叶文洁	-1587
一道	-1588
半球	-1589
死星	-1590
还没	-1591
之间的	-1592
行星的	-1593
领导人	-1594
以下	-1595
六个	-1596
将在	-1597
年龄	-1598
建设	-1599
微笑	-1600
扩散	-1601
机枪	-1602
消灭	-1603
等着	-1604
试图	-1605
雷球	-1606
BRA	-1607
着什么	-1608
BRAIN	-1609
一旦	-1610
了两	-1611
体积	-1612
保护	-1613
公路	-1614
岁月	-1615
指令	-1616
文件	-1617
有关	-1618
身份	-1619
飞人	-1620
应该是	-1621
让他们	-1622
亚洲	-1623
传统	-1624
信念	-1625
回头	-1626
她在	-1627
放大	-1628
是啊	-1629
景象	-1630
梦想	-1631
武装	-1632
琳娜	-1633
角度	-1634
这人	-1635
他们是	-1636
听到了	-1637
把自己	-1638
这不是	-1639
默默地	-1640
＝＝＝＝	-1641
上尉	-1642
制止	-1643
升起	-1644
双手	-1645
听着	-1646
圆圆	-1647
开的	-1648
抬起	-1649
时期	-1650
随时	-1651
停止了	-1652
明白了	-1653
破壁人	-1654
进行的	-1655
这个世界	-1656
一群	-1657
一艘	-1658
否则	-1659
它在	-1660
尽管	-1661
山谷	-1662
引起	-1663
惊叫	-1664
探险	-1665
每次	-1666
深的	-1667
激光	-1668
细胞	-1669
绿色	-1670
自由	-1671
那你	-1672
难道	-1673
。""	-1674
他们都	-1675
以后的	-1676
后面的	-1677
进一步	-1678
太空中的	-1679
我们现在	-1680
爸爸妈妈	-1681
物理学家	-1682
上次	-1683
不太	-1684
会有	-1685
准确	-1686
双方	-1687
小组	-1688
幸运	-1689
我对	-1690
进人	-1691
黄金	-1692
不同的	-1693
生命的	-1694
的那种	-1695
组成的	-1696
这里的	-1697
出现了一	-1698
不敢	-1699
了吗	-1700
交换	-1701
取得	-1702
学生	-1703
放弃	-1704
教授	-1705
燃料	-1706
画师	-1707
痛苦	-1708
舷窗	-1709
进了	-1710
降低	-1711
一直在	-1712
回到了	-1713
小朋友	-1714
的人都	-1715
颗恒星	-1716
两个孩子	-1717
自然选择	-1718
一千	-1719
不行	-1720
主任	-1721
北约	-1722
实在	-1723
必要	-1724
是对	-1725
曲率	-1726
末日	-1727
的长	-1728
稳定	-1729
音乐	-1730
颤抖	-1731
在那个	-1732
怎么办	-1733
我们在	-1734
的那个	-1735
中国孩子	-1736
没有什么	-1737
一场	-1738
市长	-1739
时光	-1740
是由	-1741
此时	-1742
王子	-1743
用于	-1744
脚步	-1745
计时	-1746
隧道	-1747
马上	-1748
了一声	-1749
进入了	-1750
高大的	-1751
在太空中	-1752
你能	-1753
你要	-1754
关闭	-1755
冷静	-1756
发着	-1757
同意	-1758
回忆	-1759
地把	-1760
场的	-1761
整体	-1762
林肯	-1763
概念	-1764
海岸	-1765
电池	-1766
秋生	-1767
胜利	-1768
落到	-1769
露出	-1770
?”“	-1771
了一种	-1772
的人类	-1773
的样子	-1774
程心和	-1775
很长时间	-1776
上有	-1777
不出	-1778
他把	-1779
八十	-1780
到来	-1781
向下	-1782
回家	-1783
土地	-1784
太平	-1785
对方	-1786
成长	-1787
激发	-1788
玫瑰	-1789
用了	-1790
的外	-1791
相反	-1792
细的	-1793
自动	-1794
这场	-1795
重复	-1796
他看到	-1797
存在的	-1798
的太空	-1799
数学模型	-1800
一座	-1801
之处	-1802
倒是	-1803
共同	-1804
恐怖	-1805
斯科	-1806
没了	-1807
炸弹	-1808
粮食	-1809
线的	-1810
行者	-1811
顶上	-1812
高度	-1813
一个小	-1814
上面的	-1815
我们是	-1816
烧火工	-1817
一辆	-1818
也会	-1819
互相	-1820
他对	-1821
原始	-1822
大使	-1823
大西	-1824
安慰	-1825
完整	-1826
层的	-1827
承认	-1828
摩托	-1829
方法	-1830
无际	-1831
日子	-1832
早已	-1833
毫无	-1834
监听	-1835
看法	-1836
萨沙	-1837
行为	-1838
谈话	-1839
迷惑	-1840
了出来	-1841
到现在	-1842
看了看	-1843
▁章北海	-1844
”，	-1845
一号	-1846
丝毫	-1847
了个	-1848
传来	-1849
十五	-1850
印象	-1851
坍缩	-1852
宇航	-1853
岩石	-1854
异常	-1855
晶莹	-1856
月亮	-1857
有多	-1858
海面	-1859
火星	-1860
爱的	-1861
膨胀	-1862
站起来	-1863
静静地	-1864
黑暗中	-1865
这样一个	-1866
▁最高执政官	-1867
不好	-1868
专家	-1869
也很	-1870
五百	-1871
任务	-1872
判断	-1873
吸引	-1874
复制	-1875
我会	-1876
手指	-1877
拯救	-1878
玩具	-1879
航空	-1880
规则	-1881
记者	-1882
逃亡	-1883
遥远	-1884
都没	-1885
间的	-1886
降临	-1887
预测	-1888
他知道	-1889
手中的	-1890
的太阳	-1891
只是一个	-1892
DC	-1893
一件	-1894
中最	-1895
也就	-1896
二号	-1897
但她	-1898
体育	-1899
向外	-1900
和平	-1901
墓碑	-1902
多年	-1903
工具	-1904
常伟	-1905
开发	-1906
强度	-1907
手枪	-1908
温暖	-1909
灯光	-1910
米的	-1911
表达	-1912
越过	-1913
和小梦	-1914
地平线	-1915
地面上	-1916
基地的	-1917
建筑物	-1918
是一片	-1919
显然是	-1920
的国家	-1921
中有	-1922
冰块	-1923
十二	-1924
各位	-1925
呆呆	-1926
宁静	-1927
对他	-1928
常常	-1929
斯坦	-1930
无所	-1931
明天	-1932
活着	-1933
茫然	-1934
装备	-1935
视野	-1936
那就	-1937
错了	-1938
雷达	-1939
也不会	-1940
太平洋	-1941
得到了	-1942
感兴趣	-1943
所有人	-1944
构成的	-1945
过去了	-1946
遥远的	-1947
”。	-1948
加上	-1949
在水	-1950
海军	-1951
纪念	-1952
装置	-1953
都要	-1954
钢印	-1955
驱动	-1956
常伟思	-1957
这么说	-1958
宇宙中的	-1959
了他	-1960
亮了	-1961
动作	-1962
占据	-1963
去的	-1964
吕刚	-1965
地对	-1966
大型	-1967
密集	-1968
房子	-1969
执行	-1970
无力	-1971
草原	-1972
让她	-1973
诅咒	-1974
迹象	-1975
部长	-1976
出现在	-1977
剩下的	-1978
告诉我	-1979
秘书长	-1980
那就是	-1981
美国孩子	-1982
还有一个	-1983
▁《	-1984
下午	-1985
也都	-1986
以及	-1987
位于	-1988
墙壁	-1989
夜空	-1990
大概	-1991
失重	-1992
密封	-1993
总网	-1994
星期	-1995
活动	-1996
海水	-1997
物种	-1998
皇帝	-1999
脚下	-2000
通信	-2001
遥控	-2002
面临	-2003
上的一	-2004
不停地	-2005
在他的	-2006
大多数	-2007
万个	-2008
两千	-2009
了好	-2010
做了	-2011
化为	-2012
可见	-2013
多次	-2014
妻子	-2015
学者	-2016
开来	-2017
抓住	-2018
是很	-2019
月光	-2020
有三	-2021
死的	-2022
的最	-2023
英国	-2024
说了	-2025
轰鸣	-2026
这项	-2027
预料	-2028
公里的	-2029
到这里	-2030
相当于	-2031
面壁计划	-2032
--	-2033
》，	-2034
全球	-2035
功能	-2036
同步	-2037
大海	-2038
常规	-2039
形象	-2040
按钮	-2041
智慧	-2042
曹彬	-2043
消耗	-2044
液体	-2045
激动	-2046
航迹	-2047
让你	-2048
那人	-2049
错误	-2050
▁于是	-2051
伊文斯	-2052
卡琳娜	-2053
吞食者	-2054
方面的	-2055
特别是	-2056
知道了	-2057
两个世纪	-2058
什么东西	-2059
严重	-2060
中校	-2061
做为	-2062
六十	-2063
发布	-2064
地的	-2065
她说	-2066
室中	-2067
帮助	-2068
延续	-2069
怀疑	-2070
暴露	-2071
标志	-2072
的白	-2073
精致	-2074
车上	-2075
这点	-2076
风吹	-2077
世界中	-2078
也不是	-2079
但他们	-2080
太空军	-2081
想象的	-2082
紧接着	-2083
一把	-2084
低温	-2085
你想	-2086
半径	-2087
单元	-2088
国内	-2089
在她	-2090
坚持	-2091
官员	-2092
平衡	-2093
并非	-2094
惊恐	-2095
收到	-2096
明的	-2097
权力	-2098
根据	-2099
洪水	-2100
类似	-2101
绝望	-2102
统帅	-2103
肥皂	-2104
脉冲	-2105
蓝光	-2106
隐约	-2107
频率	-2108
飘浮	-2109
高能	-2110
显示出	-2111
男孩子	-2112
第二天	-2113
能看到	-2114
这东西	-2115
飞行器	-2116
▁孩子们	-2117
地点点头	-2118
多长时间	-2119
出现了一个	-2120
家里	-2121
幸福	-2122
幽灵	-2123
延绪	-2124
成果	-2125
把他	-2126
挥手	-2127
服务	-2128
机的	-2129
检测	-2130
流浪	-2131
犹豫	-2132
理事	-2133
的头	-2134
看清	-2135
着那	-2136
空旷	-2137
红光	-2138
级的	-2139
美丽	-2140
起飞	-2141
进化	-2142
风中	-2143
　　　	-2144
之外的	-2145
带来的	-2146
消失在	-2147
结束了	-2148
◎◎◎◎	-2149
东方延绪	-2150
一体	-2151
不对	-2152
不清	-2153
做到	-2154
全体	-2155
全面	-2156
凯西	-2157
夕阳	-2158
敏感	-2159
突破	-2160
舰上	-2161
获得	-2162
诞生	-2163
长长	-2164
宏原子	-2165
小时后	-2166
是为了	-2167
过去的	-2168
......”	-2169
▁小	-2170
一看	-2171
不及	-2172
丽丝	-2173
全是	-2174
半天	-2175
变幻	-2176
在我	-2177
它那	-2178
对话	-2179
执剑	-2180
护士	-2181
放下	-2182
比例	-2183
睡觉	-2184
记住	-2185
设施	-2186
赫尔	-2187
龙卷	-2188
不断地	-2189
不需要	-2190
些什么	-2191
产生了	-2192
几秒钟	-2193
在这种	-2194
有许多	-2195
百分之	-2196
　　　※	-2197
人类社会	-2198
　　　　　　　※	-2199
一架	-2200
伸出	-2201
你看	-2202
前进	-2203
原野	-2204
号上	-2205
复活	-2206
多个	-2207
字幕	-2208
带来	-2209
忘了	-2210
感情	-2211
智能	-2212
独立	-2213
的门	-2214
短暂	-2215
终极	-2216
而言	-2217
脑袋	-2218
航母	-2219
识别	-2220
调查	-2221
飞向	-2222
食品	-2223
你怎么	-2224
就这样	-2225
简单的	-2226
说什么	-2227
起来的	-2228
轨道上	-2229
．．．．．．	-2230
▁三	-2231
一动	-2232
上一	-2233
仍是	-2234
光滑	-2235
具体	-2236
冯帆	-2237
发光	-2238
四周	-2239
强光	-2240
很小	-2241
惠子	-2242
既然	-2243
有两	-2244
欢呼	-2245
球形	-2246
的气	-2247
穿透	-2248
纽约	-2249
行驶	-2250
钢铁	-2251
魔鬼	-2252
——”	-2253
告诉你	-2254
战争中	-2255
有一天	-2256
的一次	-2257
的力量	-2258
站起身	-2259
————	-2260
也不知道	-2261
了一会儿	-2262
为止	-2263
之类	-2264
会的	-2265
像在	-2266
冷却	-2267
只手	-2268
审判	-2269
循环	-2270
打量	-2271
教师	-2272
整齐	-2273
文字	-2274
无关	-2275
是我	-2276
浑身	-2277
海上	-2278
深夜	-2279
混乱	-2280
能源	-2281
见了	-2282
警察	-2283
质子	-2284
走向	-2285
输入	-2286
那条	-2287
部的	-2288
释放	-2289
领域	-2290
了一切	-2291
强烈的	-2292
的巨大	-2293
中的一个	-2294
三体世界的	-2295
一小	-2296
亿人	-2297
价值	-2298
其余	-2299
卫宁	-2300
圆形	-2301
外界	-2302
婴儿	-2303
安静	-2304
定位	-2305
小型	-2306
旋涡	-2307
无声	-2308
给你	-2309
群星	-2310
金字	-2311
阴影	-2312
青铜	-2313
有很多	-2314
离开了	-2315
飞快地	-2316
不久	-2317
亨特	-2318
冲锋	-2319
四下	-2320
对我	-2321
封闭	-2322
您是	-2323
担心	-2324
效应	-2325
是用	-2326
有过	-2327
有限	-2328
消息	-2329
的不	-2330
给他	-2331
蓝天	-2332
这块	-2333
连接	-2334
那儿	-2335
量的	-2336
两个人	-2337
其他人	-2338
悬浮在	-2339
所在的	-2340
是一名	-2341
真实的	-2342
等待着	-2343
这也是	-2344
一半	-2345
两天	-2346
优势	-2347
体系	-2348
克雷	-2349
无论	-2350
有着	-2351
每秒	-2352
电路	-2353
那两	-2354
顶端	-2355
▁如果	-2356
倒计时	-2357
先行者	-2358
参谋长	-2359
在地上	-2360
大规模	-2361
我们都	-2362
敌人的	-2363
旁边的	-2364
留下的	-2365
金字塔	-2366
龙卷风	-2367
三体舰队	-2368
共和国的	-2369
地摇摇头	-2370
与此	-2371
发言	-2372
坎特	-2373
奥运	-2374
好吧	-2375
床上	-2376
很像	-2377
快速	-2378
拒绝	-2379
斯肯	-2380
显现	-2381
标准	-2382
核心	-2383
沙发	-2384
现象	-2385
相应	-2386
真空	-2387
航程	-2388
落下	-2389
西方	-2390
训练	-2391
转过	-2392
这颗	-2393
连续	-2394
那颗	-2395
门口	-2396
阶梯	-2397
黑的	-2398
以前的	-2399
但没有	-2400
未来的	-2401
杨卫宁	-2402
第二个	-2403
第二次	-2404
艺术家	-2405
默斯肯	-2406
。。。。	-2407
丰富	-2408
了吧	-2409
五千	-2410
交通	-2411
允许	-2412
压力	-2413
古代	-2414
号和	-2415
吃的	-2416
天花	-2417
头上	-2418
层次	-2419
已是	-2420
形式	-2421
总理	-2422
暴雨	-2423
某个	-2424
火球	-2425
皮肤	-2426
这片	-2427
适合	-2428
造成	-2429
随后	-2430
麦克	-2431
地看到	-2432
是人类	-2433
而不是	-2434
许大校	-2435
银色的	-2436
一台	-2437
万人	-2438
不安	-2439
内存	-2440
到底	-2441
化了	-2442
反正	-2443
向他	-2444
呈现	-2445
尾迹	-2446
忘记	-2447
态的	-2448
怪异	-2449
扩大	-2450
正中	-2451
正好	-2452
王国	-2453
空军	-2454
编队	-2455
肉眼	-2456
脆弱	-2457
草坪	-2458
蒸汽	-2459
要想	-2460
跟踪	-2461
转动	-2462
进攻	-2463
那张	-2464
隐藏	-2465
你是说	-2466
可以在	-2467
在我们	-2468
夜空中	-2469
感到了	-2470
是一件	-2471
的恒星	-2472
的能量	-2473
肥皂泡	-2474
这声音	-2475
不大	-2476
冲击	-2477
几次	-2478
呼叫	-2479
因素	-2480
坠落	-2481
大大	-2482
她那	-2483
宽姨	-2484
战役	-2485
收集	-2486
文学	-2487
暂时	-2488
桌上	-2489
水的	-2490
漫长	-2491
点燃	-2492
热的	-2493
理智	-2494
不过是	-2495
分钟后	-2496
我看到	-2497
战争的	-2498
来到了	-2499
灿烂的	-2500
程心的	-2501
笑着说	-2502
看了一眼	-2503
▁对	-2504
▁（	-2505
一大	-2506
举起	-2507
他和	-2508
使其	-2509
创世	-2510
动力	-2511
后果	-2512
宽阔	-2513
将被	-2514
就把	-2515
就有	-2516
我没	-2517
接口	-2518
的黑	-2519
磁场	-2520
礼物	-2521
答应	-2522
紧紧	-2523
经验	-2524
芯片	-2525
非洲	-2526
颜色	-2527
冥王星	-2528
号基地	-2529
国土上	-2530
大厅中	-2531
庞大的	-2532
意味着	-2533
的城市	-2534
的结果	-2535
这件事	-2536
最后一个	-2537
一团	-2538
他就	-2539
出口	-2540
原理	-2541
反复	-2542
发电	-2543
处的	-2544
好奇	-2545
思议	-2546
意见	-2547
感受	-2548
手里	-2549
拍摄	-2550
拿着	-2551
正式	-2552
深刻	-2553
牛顿	-2554
猜测	-2555
由此	-2556
纳米	-2557
荡荡	-2558
表明	-2559
警卫	-2560
躺在	-2561
那天	-2562
首都	-2563
▁一个	-2564
上了一	-2565
为一体	-2566
前面的	-2567
我觉得	-2568
不可思议	-2569
从来没有	-2570
地球文明	-2571
什么都没有	-2572
一人	-2573
保留	-2574
入了	-2575
几百	-2576
因此	-2577
固定	-2578
她是	-2579
密度	-2580
对象	-2581
岩浆	-2582
平方	-2583
开关	-2584
惟一	-2585
把手	-2586
旅行	-2587
本书	-2588
氢弹	-2589
水平	-2590
测试	-2591
深渊	-2592
特征	-2593
监测	-2594
窗外	-2595
翻译	-2596
脱离	-2597
自我	-2598
超导	-2599
阵列	-2600
随意	-2601
靠近	-2602
飞出	-2603
麻木	-2604
不得不	-2605
使他们	-2606
女孩子	-2607
完成了	-2608
想到了	-2609
房间里	-2610
持续了	-2611
更大的	-2612
的宇宙	-2613
的所有	-2614
的那些	-2615
观察者	-2616
什么地方	-2617
只有一个	-2618
孩子们的	-2619
这个国家	-2620
一生	-2621
不解	-2622
也要	-2623
厚的	-2624
发送	-2625
吃饭	-2626
地向	-2627
地层	-2628
坐下	-2629
女性	-2630
密的	-2631
就被	-2632
尽快	-2633
庄严	-2634
水星	-2635
白宫	-2636
维度	-2637
蒸发	-2638
觉察	-2639
身于	-2640
身影	-2641
那片	-2642
采用	-2643
队列	-2644
静止	-2645
预警	-2646
高级	-2647
反物质	-2648
大气层	-2649
对我们	-2650
成了一	-2651
有两个	-2652
的另一	-2653
的大脑	-2654
的空间	-2655
知道的	-2656
空气中	-2657
什么时候	-2658
虚拟公民	-2659
▁你	-2660
不足	-2661
两位	-2662
人和	-2663
人家	-2664
休息	-2665
凝固	-2666
出生	-2667
呵呵	-2668
命的	-2669
导致	-2670
射线	-2671
就算	-2672
尸体	-2673
建议	-2674
扰动	-2675
方阵	-2676
时空	-2677
有个	-2678
机械	-2679
李白	-2680
满足	-2681
点的	-2682
电弧	-2683
石块	-2684
离去	-2685
童年	-2686
米沙	-2687
被击	-2688
运输	-2689
那块	-2690
问道	-2691
首脑	-2692
▁字幕	-2693
一个大	-2694
也可以	-2695
但由于	-2696
克雷尔	-2697
古老的	-2698
好像是	-2699
小心翼	-2700
就没有	-2701
差不多	-2702
很容易	-2703
怎么会	-2704
脑海中	-2705
艘飞船	-2706
这句话	-2707
那东西	-2708
那样的	-2709
中国太阳	-2710
这个问题	-2711
上千	-2712
中尉	-2713
了我	-2714
伸手	-2715
区的	-2716
名的	-2717
在于	-2718
安装	-2719
对此	-2720
接过	-2721
教育	-2722
是吗	-2723
比赛	-2724
漂亮	-2725
电波	-2726
空泡	-2727
竟然	-2728
笑了	-2729
纸条	-2730
舒服	-2731
解读	-2732
辛根	-2733
采取	-2734
防线	-2735
陨石	-2736
顺利	-2737
主要是	-2738
了一阵	-2739
冲锋枪	-2740
太空服	-2741
恢复了	-2742
我说过	-2743
有多少	-2744
注意力	-2745
的时代	-2746
的那一	-2747
这些人	-2748
那么多	-2749
飞摩托	-2750
思想钢印	-2751
最后一次	-2752
赫尔辛根	-2753
▁号	-2754
不由	-2755
亮度	-2756
借助	-2757
区别	-2758
只需	-2759
各自	-2760
听说	-2761
墙上	-2762
夜色	-2763
尺度	-2764
悬浮	-2765
愿望	-2766
放心	-2767
无人	-2768
星光	-2769
曲线	-2770
杨冬	-2771
淡淡	-2772
火光	-2773
理由	-2774
的三	-2775
的主	-2776
看见	-2777
自身	-2778
莱尔	-2779
那名	-2780
陆战	-2781
随便	-2782
障碍	-2783
雪花	-2784
PDC	-2785
▁人们	-2786
以至于	-2787
唯一的	-2788
大家都	-2789
小心地	-2790
就行了	-2791
的原因	-2792
的边缘	-2793
运行的	-2794
里面的	-2795
也不可能	-2796
我不知道	-2797
黄金原野	-2798
事件	-2799
从事	-2800
但是	-2801
分布	-2802
哲学	-2803
圆柱	-2804
在距	-2805
将是	-2806
山杉	-2807
平均	-2808
延伸	-2809
打破	-2810
探索	-2811
操纵	-2812
放着	-2813
最好	-2814
极端	-2815
植物	-2816
法国	-2817
这位	-2818
道德	-2819
那位	-2820
重大	-2821
队员	-2822
▁然后	-2823
三体人	-2824
不一样	-2825
不存在	-2826
但很快	-2827
历史的	-2828
可能性	-2829
在地球	-2830
宇航员	-2831
对他们	-2832
我们就	-2833
我还是	-2834
的大地	-2835
的存在	-2836
这样做	-2837
小心翼翼	-2838
整个宇宙	-2839
。）	-2840
上是	-2841
不够	-2842
两次	-2843
可怜	-2844
和大	-2845
声明	-2846
失望	-2847
局长	-2848
已在	-2849
平时	-2850
意外	-2851
早晨	-2852
明确	-2853
最多	-2854
机场	-2855
来看	-2856
柔软	-2857
母舰	-2858
每一	-2859
永恒	-2860
法庭	-2861
温度	-2862
灵魂	-2863
痕迹	-2864
着了	-2865
研制	-2866
等于	-2867
管理	-2868
管道	-2869
螺旋	-2870
角落	-2871
走上	-2872
走廊	-2873
进程	-2874
银色	-2875
飞去	-2876
不远处	-2877
他没有	-2878
但我们	-2879
即使在	-2880
在内的	-2881
大小的	-2882
技术的	-2883
抬起头	-2884
是这样	-2885
电视上	-2886
程心说	-2887
人类文明	-2888
公元世纪	-2889
玫瑰星云	-2890
华华和小梦	-2891
一股	-2892
下方	-2893
人口	-2894
人是	-2895
亿年	-2896
估计	-2897
但从	-2898
反而	-2899
围绕	-2900
声中	-2901
好好	-2902
微波	-2903
我能	-2904
我还	-2905
支撑	-2906
无形	-2907
沉思	-2908
渴望	-2909
父母	-2910
瞄准	-2911
示意	-2912
统一	-2913
说是	-2914
走过	-2915
这也	-2916
通知	-2917
队的	-2918
全人类	-2919
另一种	-2920
天花板	-2921
实验室	-2922
很简单	-2923
找不到	-2924
指挥官	-2925
的一种	-2926
的形状	-2927
的距离	-2928
目前的	-2929
天文单位	-2930
这个时代	-2931
一段	-2932
传递	-2933
原则	-2934
吴岳	-2935
呜呜	-2936
嘴里	-2937
大喊	-2938
大臣	-2939
天边	-2940
山的	-2941
手段	-2942
承受	-2943
来回	-2944
来源	-2945
某些	-2946
水晶	-2947
海的	-2948
深深	-2949
火车	-2950
灰尘	-2951
点头	-2952
电影	-2953
的前	-2954
短短	-2955
石头	-2956
考察	-2957
联盟	-2958
舒适	-2959
苏联	-2960
蛛丝	-2961
讲话	-2962
财富	-2963
跨越	-2964
转移	-2965
那边	-2966
镜头	-2967
长期	-2968
陆军	-2969
限制	-2970
麻烦	-2971
▁大牙	-2972
以上的	-2973
使自己	-2974
启动了	-2975
在她的	-2976
地盯着	-2977
奇怪的	-2978
对不起	-2979
年轻的	-2980
强大的	-2981
推进器	-2982
普通人	-2983
生活在	-2984
的人群	-2985
的天空	-2986
的目标	-2987
的表面	-2988
的金属	-2989
范围内	-2990
转过身	-2991
那么大	-2992
雪白的	-2993
面前的	-2994
！！”	-2995
那是一个	-2996
一遍	-2997
三天	-2998
不像	-2999
为此	-3000
低声	-3001
依塔	-3002
保存	-3003
减少	-3004
别墅	-3005
去找	-3006
叹息	-3007
各大	-3008
向后	-3009
大于	-3010
大叫	-3011
始皇	-3012
实体	-3013
客厅	-3014
岁的	-3015
干了	-3016
心的	-3017
我将	-3018
所说	-3019
排险	-3020
提醒	-3021
斯特	-3022
是他	-3023
是有	-3024
深水	-3025
缓慢	-3026
闪光	-3027
震动	-3028
▁你们	-3029
了这个	-3030
人们的	-3031
大地上	-3032
工作的	-3033
形成的	-3034
成一个	-3035
武器的	-3036
现在已	-3037
的那样	-3038
罗辑的	-3039
起来了	-3040
出了一个	-3041
所有人都	-3042
▁第	-3043
一笑	-3044
三人	-3045
事儿	-3046
仪式	-3047
使它	-3048
先进	-3049
关注	-3050
农业	-3051
几名	-3052
又在	-3053
噩梦	-3054
国王	-3055
图象	-3056
学会	-3057
小雨	-3058
少数	-3059
幅画	-3060
情绪	-3061
扫描	-3062
文物	-3063
早在	-3064
模式	-3065
歼击	-3066
界面	-3067
登上	-3068
笑笑	-3069
航线	-3070
船长	-3071
警告	-3072
针眼	-3073
长达	-3074
香皂	-3075
什么的	-3076
低声说	-3077
刚才的	-3078
在这儿	-3079
没想到	-3080
第一批	-3081
身上的	-3082
这之前	-3083
为什么不	-3084
超新星爆发	-3085
上午	-3086
上看	-3087
不少	-3088
两名	-3089
享受	-3090
代替	-3091
冷酷	-3092
变为	-3093
只在	-3094
壁上	-3095
大门	-3096
媒体	-3097
宏伟	-3098
少尉	-3099
就象	-3100
并且	-3101
成熟	-3102
戴着	-3103
拖着	-3104
有效	-3105
本质	-3106
柔和	-3107
格的	-3108
毫不	-3109
火的	-3110
爷爷	-3111
电流	-3112
脸色	-3113
自转	-3114
舱门	-3115
边界	-3116
这不	-3117
阿姨	-3118
集结	-3119
风雪	-3120
与地球	-3121
他的话	-3122
可能的	-3123
在一片	-3124
太空的	-3125
形成了	-3126
得到的	-3127
接下来	-3128
是怎么	-3129
爱丽丝	-3130
的大气	-3131
秦始皇	-3132
表面的	-3133
负责人	-3134
这么多	-3135
集团军	-3136
一动不动	-3137
就是一个	-3138
山杉惠子	-3139
已经没有	-3140
这些东西	-3141
青铜时代	-3142
▁又	-3143
一年	-3144
不上	-3145
乔耶	-3146
他用	-3147
代码	-3148
公众	-3149
兹罗	-3150
可笑	-3151
天堂	-3152
头盔	-3153
山大	-3154
山脉	-3155
弯曲	-3156
惊喜	-3157
想了	-3158
掉了	-3159
星舰	-3160
来得	-3161
样的	-3162
毕业	-3163
毛毛	-3164
照耀	-3165
站着	-3166
笑容	-3167
箱子	-3168
精度	-3169
莫夫	-3170
血液	-3171
袭击	-3172
要把	-3173
讲述	-3174
话筒	-3175
调整	-3176
象征	-3177
那次	-3178
露珠	-3179
鼠标	-3180
可怕的	-3181
已经是	-3182
已经被	-3183
开始时	-3184
斐兹罗	-3185
有几个	-3186
电磁波	-3187
的基础	-3188
的第一	-3189
确实是	-3190
给我们	-3191
与此同时	-3192
可以肯定	-3193
这种感觉	-3194
赫尔辛根默斯肯	-3195
三颗	-3196
习惯	-3197
从中	-3198
儿的	-3199
凌晨	-3200
出于	-3201
周文	-3202
围着	-3203
均匀	-3204
塑料	-3205
天体	-3206
学术	-3207
宏观	-3208
微观	-3209
把这	-3210
播放	-3211
期间	-3212
格林	-3213
欣赏	-3214
沃纳	-3215
泡船	-3216
看得	-3217
神话	-3218
空白	-3219
空的	-3220
英语	-3221
袋中	-3222
诡异	-3223
黄色	-3224
一下子	-3225
人们都	-3226
但还是	-3227
你说的	-3228
同一个	-3229
周文王	-3230
大声说	-3231
我只是	-3232
打开了	-3233
斯科特	-3234
新世界	-3235
无际的	-3236
时间内	-3237
机器人	-3238
电子战	-3239
的事儿	-3240
罗辑说	-3241
背景上	-3242
造成的	-3243
重要的	-3244
信息大厦	-3245
▁(	-3246
一句	-3247
与会	-3248
举行	-3249
也被	-3250
乱的	-3251
了些	-3252
人生	-3253
他妈	-3254
伦娜	-3255
但那	-3256
信心	-3257
利用	-3258
力地	-3259
十号	-3260
去吧	-3261
呼啸	-3262
型的	-3263
外形	-3264
对了	-3265
居住	-3266
帐篷	-3267
强烈	-3268
很远	-3269
成立	-3270
扔到	-3271
挣扎	-3272
摆脱	-3273
暗的	-3274
步枪	-3275
水中	-3276
用手	-3277
萨伊	-3278
起航	-3279
辈子	-3280
这才	-3281
▁眼镜	-3282
一个个	-3283
加速度	-3284
卫队长	-3285
向他们	-3286
宽大的	-3287
对自己	-3288
对这个	-3289
成功的	-3290
我已经	-3291
木星的	-3292
的阳光	-3293
社会学	-3294
社会的	-3295
置身于	-3296
远方的	-3297
三体文明	-3298
变成了一	-3299
太阳系的	-3300
小朋友们	-3301
整个世界	-3302
▁B	-3303
不不	-3304
不住	-3305
不错	-3306
两根	-3307
他不	-3308
具备	-3309
列车	-3310
包含	-3311
同一	-3312
同学	-3313
向着	-3314
哪个	-3315
国旗	-3316
地狱	-3317
太大	-3318
好吗	-3319
害怕	-3320
密密	-3321
年来	-3322
引爆	-3323
形势	-3324
想的	-3325
愤怒	-3326
我有	-3327
方形	-3328
无线	-3329
更是	-3330
树枝	-3331
疲惫	-3332
白天	-3333
眼神	-3334
结论	-3335
荒凉	-3336
虫子	-3337
通道	-3338
镜像	-3339
雾中	-3340
面罩	-3341
▁晓梦	-3342
下去了	-3343
几乎是	-3344
双眼睛	-3345
和其他	-3346
在哪儿	-3347
布莱尔	-3348
我们能	-3349
排险者	-3350
智子的	-3351
的公民	-3352
的地下	-3353
的方式	-3354
运动员	-3355
▁“……	-3356
行星防御	-3357
万多	-3358
中华	-3359
九十	-3360
亲自	-3361
仪器	-3362
你不	-3363
你会	-3364
停了	-3365
军装	-3366
冰冷	-3367
初步	-3368
剩下	-3369
台阶	-3370
国防	-3371
大笑	-3372
定律	-3373
尊敬	-3374
层中	-3375
悬崖	-3376
惊叹	-3377
我去	-3378
抱着	-3379
拉开	-3380
招呼	-3381
星海	-3382
是以	-3383
比起	-3384
污染	-3385
沉睡	-3386
点上	-3387
狄奥	-3388
瓦季	-3389
生日	-3390
留在	-3391
真理	-3392
糖城	-3393
置信	-3394
自行	-3395
落日	-3396
行走	-3397
运转	-3398
运载	-3399
这艘	-3400
远离	-3401
陶醉	-3402
下一步	-3403
世纪前	-3404
两个月	-3405
中心的	-3406
你可以	-3407
占据了	-3408
反射着	-3409
地发现	-3410
已经很	-3411
布满了	-3412
平原上	-3413
然后又	-3414
的大陆	-3415
的机会	-3416
看不出	-3417
研究的	-3418
空荡荡	-3419
绿色的	-3420
了几秒钟	-3421
信息窗口	-3422
天文学家	-3423
完全不同	-3424
我们应该	-3425
下车	-3426
个体	-3427
乎乎	-3428
事业	-3429
们的	-3430
作者	-3431
使我	-3432
充分	-3433
公布	-3434
动了	-3435
化学	-3436
十个	-3437
奇迹	-3438
完好	-3439
宴会	-3440
家的	-3441
小学	-3442
底部	-3443
性质	-3444
意的	-3445
支持	-3446
机舱	-3447
枪声	-3448
沉的	-3449
淹没	-3450
爱因	-3451
种子	-3452
空灵	-3453
美妙	-3454
羽毛	-3455
详细	-3456
身材	-3457
轻松	-3458
鉴定	-3459
雪茄	-3460
飞速	-3461
之所以	-3462
以光速	-3463
对人类	-3464
怎么能	-3465
我真的	-3466
所说的	-3467
把目光	-3468
提出的	-3469
收到了	-3470
普通的	-3471
爆炸声	-3472
瓦季姆	-3473
生活的	-3474
的内容	-3475
的部分	-3476
的高度	-3477
真的是	-3478
轻轻地	-3479
令人难以	-3480
光速飞船	-3481
南极大陆	-3482
吞食帝国	-3483
我们可以	-3484
架直升机	-3485
爱因斯坦	-3486
航空母舰	-3487
ER	-3488
▁您	-3489
不见	-3490
与他	-3491
之下	-3492
他也	-3493
作品	-3494
保卫	-3495
值得	-3496
入侵	-3497
冯凡	-3498
刚从	-3499
图形	-3500
在两	-3501
地核	-3502
埃玛	-3503
增大	-3504
大战	-3505
奇点	-3506
家伙	-3507
惊人	-3508
我只	-3509
接到	-3510
摇晃	-3511
方便	-3512
果然	-3513
榴弹	-3514
正如	-3515
沉浸	-3516
浮现	-3517
清澈	-3518
港口	-3519
瓦纳	-3520
相距	-3521
真诚	-3522
稀疏	-3523
老头	-3524
聪明	-3525
谁都	-3526
迎接	-3527
还会	-3528
那几	-3529
闪闪	-3530
陌生	-3531
集体	-3532
齿哥	-3533
！！	-3534
▁沃恩	-3535
一只手	-3536
三个人	-3537
上世纪	-3538
他已经	-3539
他的手	-3540
你现在	-3541
出来了	-3542
孩子都	-3543
引起了	-3544
打电话	-3545
明显的	-3546
歼击机	-3547
毛毛虫	-3548
生物学	-3549
的人生	-3550
的历史	-3551
空间中	-3552
再也没有	-3553
地球上的	-3554
孩子们都	-3555
总参谋长	-3556
总工程师	-3557
一排	-3558
一面	-3559
上万	-3560
下降	-3561
人数	-3562
停下	-3563
冷冷	-3564
分辨	-3565
十三	-3566
发的	-3567
因而	-3568
屏蔽	-3569
差别	-3570
幸存	-3571
建成	-3572
开着	-3573
当他	-3574
抵抗	-3575
拉着	-3576
朦胧	-3577
林格	-3578
概率	-3579
死于	-3580
深度	-3581
炮弹	-3582
玉菲	-3583
的车	-3584
直觉	-3585
级别	-3586
缺少	-3587
耳机	-3588
走来	-3589
足球	-3590
身躯	-3591
通向	-3592
间隔	-3593
顶部	-3594
饕餮	-3595
黑点	-3596
▁主席	-3597
▁这天	-3598
一定要	-3599
告诉他	-3600
回来了	-3601
在我的	-3602
尽可能	-3603
年时间	-3604
数据库	-3605
时间的	-3606
来不及	-3607
正常的	-3608
每个人	-3609
沉默了	-3610
熟悉的	-3611
眼前的	-3612
美国人	-3613
装甲车	-3614
证实了	-3615
达到了	-3616
世界上最	-3617
的大部分	-3618
▁菲利克斯	-3619
上级	-3620
严肃	-3621
中断	-3622
事故	-3623
云层	-3624
人工	-3625
他还	-3626
伟大	-3627
但它	-3628
但对	-3629
使她	-3630
候选	-3631
全民	-3632
发表	-3633
国务	-3634
地毯	-3635
夜晚	-3636
头顶	-3637
室的	-3638
小说	-3639
干净	-3640
并在	-3641
形态	-3642
得太	-3643
情景	-3644
我把	-3645
我来	-3646
我看	-3647
承担	-3648
折磨	-3649
摄影	-3650
政委	-3651
效果	-3652
有所	-3653
欢迎	-3654
民族	-3655
着陆	-3656
笑话	-3657
纸上	-3658
耀眼	-3659
耗尽	-3660
记载	-3661
走后	-3662
足以	-3663
躯体	-3664
部门	-3665
长大	-3666
陈继	-3667
飞星	-3668
黄昏	-3669
▁史强	-3670
▁对于	-3671
▁由于	-3672
▁随着	-3673
之类的	-3674
会议上	-3675
传来的	-3676
做什么	-3677
冈瓦纳	-3678
危险的	-3679
的	-3680
，	-3681
。	-3682
一	-3683
▁	-3684
了	-3685
在	-3686
是	-3687
这	-3688
,	-3689
个	-3690
“	-3691
”	-3692
们	-3693
不	-3694
有	-3695
我	-3696
他	-3697
人	-3698
上	-3699
中	-3700
到	-3701
大	-3702
地	-3703
那	-3704
来	-3705
时	-3706
着	-3707
说	-3708
出	-3709
看	-3710
子	-3711
你	-3712
和	-3713
后	-3714
能	-3715
就	-3716
下	-3717
现	-3718
面	-3719
都	-3720
过	-3721
对	-3722
没	-3723
也	-3724
可	-3725
么	-3726
但	-3727
以	-3728
小	-3729
发	-3730
：	-3731
为	-3732
很	-3733
空	-3734
要	-3735
会	-3736
星	-3737
生	-3738
国	-3739
只	-3740
它	-3741
起	-3742
去	-3743
里	-3744
？	-3745
天	-3746
成	-3747
她	-3748
自	-3749
…	-3750
行	-3751
！	-3752
前	-3753
最	-3754
太	-3755
多	-3756
光	-3757
然	-3758
想	-3759
样	-3760
道	-3761
还	-3762
得	-3763
从	-3764
间	-3765
些	-3766
像	-3767
已	-3768
开	-3769
体	-3770
于	-3771
长	-3772
把	-3773
向	-3774
方	-3775
心	-3776
球	-3777
机	-3778
动	-3779
世	-3780
电	-3781
进	-3782
种	-3783
孩	-3784
用	-3785
两	-3786
三	-3787
年	-3788
什	-3789
分	-3790
同	-3791
所	-3792
十	-3793
.	-3794
力	-3795
明	-3796
好	-3797
点	-3798
界	-3799
头	-3800
部	-3801
飞	-3802
家	-3803
被	-3804
经	-3805
次	-3806
知	-3807
全	-3808
之	-3809
程	-3810
无	-3811
当	-3812
高	-3813
学	-3814
己	-3815
事	-3816
使	-3817
几	-3818
而	-3819
声	-3820
文	-3821
色	-3822
其	-3823
如	-3824
儿	-3825
外	-3826
实	-3827
正	-3828
海	-3829
战	-3830
走	-3831
话	-3832
者	-3833
又	-3834
手	-3835
问	-3836
系	-3837
阳	-3838
意	-3839
将	-3840
回	-3841
水	-3842
与	-3843
定	-3844
变	-3845
身	-3846
眼	-3847
真	-3848
作	-3849
目	-3850
感	-3851
类	-3852
远	-3853
西	-3854
理	-3855
接	-3856
号	-3857
度	-3858
白	-3859
0	-3860
量	-3861
工	-3862
速	-3863
比	-3864
军	-3865
公	-3866
物	-3867
维	-3868
相	-3869
1	-3870
第	-3871
信	-3872
快	-3873
直	-3874
二	-3875
处	-3876
队	-3877
"	-3878
果	-3879
代	-3880
再	-3881
形	-3882
重	-3883
数	-3884
完	-3885
让	-3886
位	-3887
舰	-3888
气	-3889
黑	-3890
吗	-3891
华	-3892
您	-3893
由	-3894
片	-3895
、	-3896
本	-3897
宇	-3898
车	-3899
火	-3900
平	-3901
觉	-3902
做	-3903
器	-3904
东	-3905
入	-3906
并	-3907
才	-3908
更	-3909
打	-3910
统	-3911
法	-3912
因	-3913
内	-3914
主	-3915
计	-3916
罗	-3917
船	-3918
云	-3919
失	-3920
象	-3921
加	-3922
射	-3923
新	-3924
线	-3925
万	-3926
指	-3927
巨	-3928
通	-3929
美	-3930
始	-3931
边	-3932
宙	-3933
离	-3934
吧	-3935
情	-3936
刚	-3937
原	-3938
放	-3939
每	-3940
基	-3941
斯	-3942
少	-3943
总	-3944
应	-3945
表	-3946
别	-3947
场	-3948
口	-3949
击	-3950
关	-3951
听	-3952
命	-3953
百	-3954
给	-3955
死	-3956
五	-3957
活	-3958
状	-3959
四	-3960
显	-3961
转	-3962
条	-3963
件	-3964
林	-3965
化	-3966
城	-3967
深	-3968
存	-3969
?	-3970
克	-3971
名	-3972
至	-3973
带	-3974
立	-3975
员	-3976
纪	-3977
息	-3978
见	-3979
制	-3980
建	-3981
史	-3982
日	-3983
轻	-3984
难	-3985
近	-3986
合	-3987
运	-3988
任	-3989
思	-3990
解	-3991
—	-3992
弹	-3993
切	-3994
结	-3995
超	-3996
望	-3997
呢	-3998
航	-3999
辑	-4000
A	-4001
半	-4002
先	-4003
2	-4004
门	-4005
山	-4006
算	-4007
首	-4008
老	-4009
住	-4010
市	-4011
等	-4012
笑	-4013
围	-4014
整	-4015
士	-4016
音	-4017
神	-4018
乎	-4019
消	-4020
干	-4021
米	-4022
闪	-4023
元	-4024
强	-4025
清	-4026
层	-4027
群	-4028
许	-4029
术	-4030
达	-4031
流	-4032
越	-4033
常	-4034
标	-4035
极	-4036
反	-4037
视	-4038
微	-4039
民	-4040
站	-4041
认	-4042
北	-4043
组	-4044
政	-4045
千	-4046
张	-4047
科	-4048
梦	-4049
确	-4050
脑	-4051
落	-4052
复	-4053
镜	-4054
拉	-4055
怎	-4056
态	-4057
静	-4058
利	-4059
各	-4060
仍	-4061
导	-4062
引	-4063
亮	-4064
测	-4065
观	-4066
3	-4067
月	-4068
示	-4069
该	-4070
产	-4071
根	-4072
记	-4073
块	-4074
夜	-4075
:	-4076
惊	-4077
女	-4078
红	-4079
影	-4080
细	-4081
另	-4082
穿	-4083
；	-4084
安	-4085
似	-4086
蓝	-4087
质	-4088
低	-4089
特	-4090
．	-4091
刻	-4092
提	-4093
字	-4094
步	-4095
联	-4096
风	-4097
画	-4098
图	-4099
雷	-4100
距	-4101
路	-4102
摇	-4103
官	-4104
亚	-4105
研	-4106
奇	-4107
装	-4108
照	-4109
此	-4110
何	-4111
找	-4112
叫	-4113
题	-4114
啊	-4115
台	-4116
令	-4117
停	-4118
突	-4119
沉	-4120
暗	-4121
断	-4122
冷	-4123
核	-4124
技	-4125
型	-4126
级	-4127
需	-4128
壁	-4129
历	-4130
满	-4131
精	-4132
造	-4133
究	-4134
升	-4135
渐	-4136
模	-4137
周	-4138
随	-4139
性	-4140
颗	-4141
终	-4142
划	-4143
座	-4144
金	-4145
环	-4146
传	-4147
集	-4148
冰	-4149
区	-4150
领	-4151
师	-4152
波	-4153
受	-4154
告	-4155
续	-4156
吃	-4157
够	-4158
设	-4159
移	-4160
5	-4161
拿	-4162
管	-4163
密	-4164
注	-4165
般	-4166
置	-4167
连	-4168
钟	-4169
爆	-4170
双	-4171
戴	-4172
游	-4173
单	-4174
论	-4175
枪	-4176
式	-4177
土	-4178
保	-4179
响	-4180
妈	-4181
冲	-4182
恐	-4183
透	-4184
试	-4185
却	-4186
坐	-4187
紧	-4188
争	-4189
服	-4190
持	-4191
构	-4192
雪	-4193
早	-4194
默	-4195
或	-4196
王	-4197
止	-4198
识	-4199
智	-4200
亲	-4201
段	-4202
交	-4203
布	-4204
议	-4205
室	-4206
收	-4207
沙	-4208
容	-4209
肯	-4210
仪	-4211
炸	-4212
河	-4213
恒	-4214
武	-4215
尽	-4216
石	-4217
社	-4218
阵	-4219
4	-4220
卫	-4221
未	-4222
破	-4223
灭	-4224
业	-4225
校	-4226
绝	-4227
备	-4228
请	-4229
际	-4230
留	-4231
!	-4232
决	-4233
约	-4234
警	-4235
倒	-4236
爸	-4237
期	-4238
仿	-4239
亿	-4240
广	-4241
推	-4242
义	-4243
即	-4244
佛	-4245
陆	-4246
帝	-4247
叶	-4248
执	-4249
验	-4250
尔	-4251
参	-4252
控	-4253
选	-4254
9	-4255
丁	-4256
毁	-4257
汪	-4258
洁	-4259
顶	-4260
幕	-4261
候	-4262
团	-4263
除	-4264
料	-4265
兵	-4266
屏	-4267
洋	-4268
圆	-4269
报	-4270
灯	-4271
察	-4272
则	-4273
窗	-4274
准	-4275
规	-4276
　	-4277
花	-4278
支	-4279
冬	-4280
按	-4281
玩	-4282
淼	-4283
甚	-4284
排	-4285
继	-4286
包	-4287
必	-4288
据	-4289
探	-4290
慢	-4291
热	-4292
答	-4293
格	-4294
缓	-4295
散	-4296
银	-4297
希	-4298
架	-4299
具	-4300
教	-4301
端	-4302
木	-4303
谈	-4304
险	-4305
简	-4306
烧	-4307
六	-4308
防	-4309
醒	-4310
书	-4311
哪	-4312
6	-4313
博	-4314
睛	-4315
办	-4316
谁	-4317
网	-4318
挥	-4319
率	-4320
共	-4321
7	-4322
展	-4323
景	-4324
背	-4325
严	-4326
兴	-4327
奥	-4328
聚	-4329
证	-4330
短	-4331
降	-4332
诉	-4333
古	-4334
威	-4335
）	-4336
房	-4337
底	-4338
急	-4339
虽	-4340
血	-4341
德	-4342
烟	-4343
（	-4344
呼	-4345
轨	-4346
雨	-4347
浮	-4348
艘	-4349
厅	-4350
男	-4351
爱	-4352
舱	-4353
言	-4354
滑	-4355
列	-4356
八	-4357
纸	-4358
8	-4359
软	-4360
泡	-4361
资	-4362
压	-4363
脸	-4364
角	-4365
秒	-4366
语	-4367
杂	-4368
伊	-4369
今	-4370
节	-4371
马	-4372
怪	-4373
旁	-4374
‘	-4375
楼	-4376
食	-4377
母	-4378
激	-4379
调	-4380
项	-4381
功	-4382
初	-4383
南	-4384
考	-4385
责	-4386
迹	-4387
取	-4388
岁	-4389
况	-4390
送	-4391
纳	-4392
戏	-4393
源	-4394
丝	-4395
投	-4396
帆	-4397
父	-4398
曾	-4399
娃	-4400
怕	-4401
板	-4402
睡	-4403
危	-4404
温	-4405
乐	-4406
章	-4407
’	-4408
坦	-4409
乱	-4410
欢	-4411
丽	-4412
预	-4413
句	-4414
限	-4415
属	-4416
仅	-4417
露	-4418
束	-4419
隐	-4420
往	-4421
充	-4422
I	-4423
堆	-4424
黄	-4425
错	-4426
宏	-4427
晚	-4428
辆	-4429
求	-4430
卡	-4431
恩	-4432
菲	-4433
筑	-4434
普	-4435
洞	-4436
草	-4437
《	-4438
足	-4439
致	-4440
待	-4441
旋	-4442
洲	-4443
》	-4444
权	-4445
龙	-4446
异	-4447
树	-4448
圈	-4449
讲	-4450
掉	-4451
永	-4452
浪	-4453
幻	-4454
敌	-4455
飘	-4456
专	-4457
且	-4458
攻	-4459
医	-4460
依	-4461
滴	-4462
跑	-4463
吸	-4464
易	-4465
庄	-4466
及	-4467
竟	-4468
燃	-4469
衣	-4470
森	-4471
尘	-4472
念	-4473
铁	-4474
举	-4475
减	-4476
护	-4477
灵	-4478
脚	-4479
积	-4480
墙	-4481
眠	-4482
靠	-4483
曲	-4484
寒	-4485
碎	-4486
迷	-4487
创	-4488
喜	-4489
晨	-4490
病	-4491
粒	-4492
味	-4493
伸	-4494
须	-4495
皮	-4496
狂	-4497
剩	-4498
杀	-4499
跟	-4500
差	-4501
悬	-4502
沃	-4503
彩	-4504
启	-4505
触	-4506
抬	-4507
磁	-4508
秘	-4509
境	-4510
换	-4511
烈	-4512
增	-4513
宽	-4514
左	-4515
谢	-4516
哈	-4517
某	-4518
漫	-4519
轮	-4520
非	-4521
沿	-4522
品	-4523
择	-4524
延	-4525
改	-4526
震	-4527
呆	-4528
喊	-4529
岸	-4530
斗	-4531
院	-4532
称	-4533
适	-4534
律	-4535
封	-4536
酒	-4537
席	-4538
桌	-4539
梯	-4540
略	-4541
便	-4542
跳	-4543
钢	-4544
故	-4545
蚁	-4546
监	-4547
亡	-4548
盖	-4549
F	-4550
G	-4551
写	-4552
拥	-4553
负	-4554
伟	-4555
案	-4556
汽	-4557
灰	-4558
播	-4559
颜	-4560
驶	-4561
脱	-4562
野	-4563
缩	-4564
府	-4565
液	-4566
值	-4567
印	-4568
艇	-4569
袋	-4570
固	-4571
晶	-4572
绿	-4573
务	-4574
否	-4575
淡	-4576
幅	-4577
径	-4578
朝	-4579
井	-4580
遥	-4581
阔	-4582
域	-4583
治	-4584
伤	-4585
右	-4586
夫	-4587
独	-4588
操	-4589
局	-4590
塔	-4591
坚	-4592
友	-4593
救	-4594
逃	-4595
毫	-4596
熟	-4597
钱	-4598
志	-4599
油	-4600
较	-4601
弱	-4602
登	-4603
顿	-4604
势	-4605
久	-4606
剧	-4607
柱	-4608
占	-4609
闭	-4610
愿	-4611
撞	-4612
委	-4613
判	-4614
拟	-4615
楚	-4616
英	-4617
阶	-4618
虚	-4619
纷	-4620
盘	-4621
幸	-4622
居	-4623
雾	-4624
效	-4625
牙	-4626
临	-4627
岩	-4628
翻	-4629
京	-4630
吞	-4631
惧	-4632
遇	-4633
份	-4634
拍	-4635
扰	-4636
握	-4637
毛	-4638
索	-4639
虑	-4640
司	-4641
暴	-4642
派	-4643
恢	-4644
扩	-4645
释	-4646
织	-4647
兹	-4648
批	-4649
辛	-4650
七	-4651
蚂	-4652
C	-4653
叹	-4654
炮	-4655
荡	-4656
序	-4657
班	-4658
录	-4659
抱	-4660
互	-4661
埃	-4662
杨	-4663
频	-4664
摆	-4665
厚	-4666
唯	-4667
零	-4668
括	-4669
薄	-4670
鱼	-4671
B	-4672
抽	-4673
查	-4674
尾	-4675
欣	-4676
苏	-4677
郑	-4678
阿	-4679
岛	-4680
朋	-4681
艺	-4682
午	-4683
含	-4684
采	-4685
坏	-4686
甲	-4687
陷	-4688
麻	-4689
(	-4690
)	-4691
映	-4692
灾	-4693
苦	-4694
倍	-4695
刘	-4696
粗	-4697
努	-4698
园	-4699
忆	-4700
松	-4701
瓶	-4702
N	-4703
稳	-4704
-	-4705
供	-4706
客	-4707
肉	-4708
芒	-4709
读	-4710
辐	-4711
恶	-4712
阴	-4713
套	-4714
峰	-4715
喝	-4716
编	-4717
承	-4718
抓	-4719
误	-4720
载	-4721
追	-4722
概	-4723
礼	-4724
莫	-4725
趣	-4726
退	-4727
漠	-4728
药	-4729
呈	-4730
避	-4731
墓	-4732
宫	-4733
助	-4734
孤	-4735
缘	-4736
;	-4737
扔	-4738
材	-4739
裂	-4740
毕	-4741
滚	-4742
笔	-4743
费	-4744
隔	-4745
础	-4746
育	-4747
众	-4748
床	-4749
混	-4750
罩	-4751
卷	-4752
彬	-4753
托	-4754
荒	-4755
败	-4756
九	-4757
忘	-4758
盯	-4759
害	-4760
范	-4761
输	-4762
遍	-4763
附	-4764
困	-4765
漂	-4766
瞬	-4767
遗	-4768
闻	-4769
征	-4770
迪	-4771
帅	-4772
虫	-4773
键	-4774
诚	-4775
D	-4776
喷	-4777
庭	-4778
谋	-4779
递	-4780
库	-4781
怀	-4782
演	-4783
疑	-4784
耳	-4785
剑	-4786
哦	-4787
帮	-4788
习	-4789
掌	-4790
富	-4791
＝	-4792
残	-4793
饭	-4794
厦	-4795
尉	-4796
诗	-4797
轰	-4798
嘴	-4799
宁	-4800
掩	-4801
R	-4802
担	-4803
P	-4804
寻	-4805
幽	-4806
村	-4807
泰	-4808
煤	-4809
e	-4810
描	-4811
检	-4812
欧	-4813
焰	-4814
余	-4815
例	-4816
哭	-4817
涌	-4818
侧	-4819
吹	-4820
疯	-4821
述	-4822
钻	-4823
勒	-4824
摄	-4825
敬	-4826
奋	-4827
寂	-4828
讯	-4829
青	-4830
绕	-4831
萨	-4832
伞	-4833
瓦	-4834
碑	-4835
膛	-4836
·	-4837
箱	-4838
妮	-4839
敢	-4840
施	-4841
素	-4842
修	-4843
假	-4844
柔	-4845
魔	-4846
价	-4847
仔	-4848
哥	-4849
◎	-4850
介	-4851
均	-4852
晓	-4853
痛	-4854
乘	-4855
凝	-4856
搞	-4857
桑	-4858
皇	-4859
藏	-4860
顺	-4861
冯	-4862
弃	-4863
顾	-4864
仰	-4865
壮	-4866
谷	-4867
旗	-4868
M	-4869
懂	-4870
末	-4871
刀	-4872
副	-4873
娜	-4874
李	-4875
玻	-4876
骨	-4877
S	-4878
慑	-4879
旧	-4880
童	-4881
爬	-4882
弦	-4883
摩	-4884
璃	-4885
悉	-4886
肩	-4887
返	-4888
配	-4889
码	-4890
箭	-4891
齐	-4892
硬	-4893
获	-4894
赛	-4895
冒	-4896
猛	-4897
折	-4898
矿	-4899
糊	-4900
茫	-4901
街	-4902
诺	-4903
归	-4904
歌	-4905
鸣	-4906
'	-4907
守	-4908
牛	-4909
翼	-4910
耗	-4911
扫	-4912
T	-4913
伏	-4914
拖	-4915
省	-4916
绪	-4917
驱	-4918
审	-4919
杯	-4920
艰	-4921
挂	-4922
臂	-4923
优	-4924
冻	-4925
累	-4926
绍	-4927
融	-4928
覆	-4929
躺	-4930
针	-4931
免	-4932
巴	-4933
御	-4934
摧	-4935
络	-4936
讨	-4937
嘛	-4938
晰	-4939
迅	-4940
胜	-4941
膜	-4942
迎	-4943
颤	-4944
坠	-4945
抗	-4946
暂	-4947
琳	-4948
鬼	-4949
伦	-4950
暖	-4951
汉	-4952
泪	-4953
缺	-4954
舞	-4955
凉	-4956
娘	-4957
课	-4958
昏	-4959
罪	-4960
股	-4961
蒸	-4962
族	-4963
纯	-4964
烂	-4965
田	-4966
休	-4967
呵	-4968
济	-4969
艾	-4970
E	-4971
农	-4972
宣	-4973
尼	-4974
尖	-4975
沈	-4976
猜	-4977
抖	-4978
圣	-4979
秋	-4980
脉	-4981
赶	-4982
借	-4983
挤	-4984
¨	-4985
池	-4986
蒙	-4987
%	-4988
俄	-4989
昨	-4990
潜	-4991
福	-4992
买	-4993
惑	-4994
职	-4995
鲸	-4996
旅	-4997
堂	-4998
忙	-4999
障	-5000
损	-5001
舷	-5002
鲜	-5003
枚	-5004
毒	-5005
脏	-5006
吨	-5007
呀	-5008
稍	-5009
笼	-5010
贵	-5011
刺	-5012
摸	-5013
腿	-5014
庞	-5015
掠	-5016
敏	-5017
怒	-5018
曼	-5019
犯	-5020
稀	-5021
贴	-5022
厂	-5023
析	-5024
央	-5025
穷	-5026
香	-5027
养	-5028
劲	-5029
截	-5030
扎	-5031
词	-5032
邦	-5033
崩	-5034
浓	-5035
耀	-5036
陈	-5037
驾	-5038
兰	-5039
妙	-5040
弯	-5041
援	-5042
o	-5043
废	-5044
练	-5045
胡	-5046
屋	-5047
彻	-5048
杆	-5049
祖	-5050
撒	-5051
珠	-5052
踪	-5053
焦	-5054
皂	-5055
酷	-5056
锋	-5057
夏	-5058
授	-5059
粮	-5060
若	-5061
饿	-5062
麦	-5063
串	-5064
孔	-5065
烦	-5066
磨	-5067
莱	-5068
途	-5069
阻	-5070
擦	-5071
倾	-5072
尊	-5073
替	-5074
染	-5075
玉	-5076
筒	-5077
扭	-5078
爷	-5079
琴	-5080
腾	-5081
壳	-5082
扑	-5083
既	-5084
缝	-5085
舒	-5086
贮	-5087
赫	-5088
跃	-5089
奶	-5090
灿	-5091
招	-5092
湖	-5093
隆	-5094
拾	-5095
晃	-5096
椅	-5097
潮	-5098
乔	-5099
吕	-5100
咒	-5101
夹	-5102
熄	-5103
纹	-5104
辈	-5105
付	-5106
姑	-5107
鸟	-5108
l	-5109
慰	-5110
江	-5111
符	-5112
胁	-5113
吐	-5114
姨	-5115
宝	-5116
旦	-5117
朵	-5118
横	-5119
蛛	-5120
L	-5121
烁	-5122
胸	-5123
财	-5124
凭	-5125
弄	-5126
译	-5127
诞	-5128
插	-5129
梭	-5130
浑	-5131
莹	-5132
骑	-5133
宋	-5134
悲	-5135
晕	-5136
铜	-5137
a	-5138
呜	-5139
枝	-5140
植	-5141
湿	-5142
炉	-5143
繁	-5144
蛋	-5145
咱	-5146
捕	-5147
斑	-5148
醉	-5149
馆	-5150
O	-5151
典	-5152
哲	-5153
商	-5154
忍	-5155
汇	-5156
溃	-5157
澳	-5158
脆	-5159
龄	-5160
塞	-5161
弧	-5162
洪	-5163
镇	-5164
※	-5165
浸	-5166
偏	-5167
春	-5168
版	-5169
禁	-5170
吓	-5171
善	-5172
坑	-5173
惨	-5174
盒	-5175
泥	-5176
隧	-5177
丢	-5178
垂	-5179
氢	-5180
辉	-5181
X	-5182
盔	-5183
逝	-5184
傻	-5185
挖	-5186
戒	-5187
补	-5188
踏	-5189
锁	-5190
渊	-5191
迫	-5192
净	-5193
拆	-5194
挣	-5195
旷	-5196
港	-5197
疏	-5198
赞	-5199
协	-5200
垃	-5201
挺	-5202
纤	-5203
革	-5204
侵	-5205
埋	-5206
票	-5207
胀	-5208
胞	-5209
躯	-5210
伙	-5211
冥	-5212
凯	-5213
叠	-5214
圾	-5215
忧	-5216
纵	-5217
训	-5218
贝	-5219
鼠	-5220
唱	-5221
姆	-5222
挡	-5223
蛇	-5224
逐	-5225
玛	-5226
紫	-5227
良	-5228
c	-5229
劳	-5230
坡	-5231
妻	-5232
惯	-5233
著	-5234
尺	-5235
幢	-5236
氧	-5237
胶	-5238
链	-5239
坍	-5240
奏	-5241
廊	-5242
怖	-5243
涉	-5244
痕	-5245
糖	-5246
衡	-5247
塑	-5248
袭	-5249
跨	-5250
r	-5251
嗯	-5252
季	-5253
役	-5254
户	-5255
搬	-5256
撤	-5257
滩	-5258
熔	-5259
篷	-5260
粉	-5261
撑	-5262
洗	-5263
浆	-5264
膨	-5265
苍	-5266
餐	-5267
喂	-5268
曹	-5269
狗	-5270
凡	-5271
卖	-5272
哇	-5273
堵	-5274
奔	-5275
循	-5276
抛	-5277
瑰	-5278
腰	-5279
苗	-5280
丛	-5281
丰	-5282
桥	-5283
渡	-5284
犹	-5285
睁	-5286
肥	-5287
跌	-5288
躲	-5289
享	-5290
届	-5291
扬	-5292
振	-5293
玫	-5294
盛	-5295
凌	-5296
召	-5297
拯	-5298
尸	-5299
惠	-5300
慧	-5301
雄	-5302
雕	-5303
啸	-5304
墨	-5305
夕	-5306
盟	-5307
逼	-5308
塌	-5309
抵	-5310
绳	-5311
唉	-5312
拒	-5313
疲	-5314
症	-5315
纽	-5316
蔽	-5317
豪	-5318
钮	-5319
陶	-5320
齿	-5321
i	-5322
伯	-5323
牌	-5324
狱	-5325
污	-5326
泊	-5327
耐	-5328
胎	-5329
夺	-5330
抢	-5331
掏	-5332
瘦	-5333
肤	-5334
诅	-5335
魂	-5336
估	-5337
悄	-5338
斜	-5339
欲	-5340
毯	-5341
涂	-5342
涡	-5343
裹	-5344
详	-5345
贫	-5346
t	-5347
厉	-5348
嗡	-5349
宴	-5350
店	-5351
扶	-5352
淹	-5353
申	-5354
碰	-5355
缕	-5356
荣	-5357
货	-5358
迟	-5359
雅	-5360
俩	-5361
唐	-5362
巧	-5363
珍	-5364
鼓	-5365
拔	-5366
桶	-5367
策	-5368
赏	-5369
骗	-5370
拦	-5371
撕	-5372
瞪	-5373
豫	-5374
赵	-5375
坎	-5376
幼	-5377
恨	-5378
框	-5379
洛	-5380
烛	-5381
罐	-5382
晴	-5383
汗	-5384
漏	-5385
邻	-5386
鼻	-5387
>	-5388
s	-5389
厌	-5390
渴	-5391
窄	-5392
茶	-5393
遭	-5394
１	-5395
喃	-5396
坪	-5397
婚	-5398
婴	-5399
爹	-5400
碍	-5401
营	-5402
螺	-5403
靶	-5404
饮	-5405
叛	-5406
唤	-5407
漆	-5408
访	-5409
亨	-5410
佳	-5411
健	-5412
巡	-5413
惟	-5414
膀	-5415
芯	-5416
霍	-5417
懒	-5418
狼	-5419
私	-5420
耶	-5421
衰	-5422
<	-5423
勤	-5424
喻	-5425
培	-5426
妹	-5427
宗	-5428
弟	-5429
慌	-5430
措	-5431
歼	-5432
猎	-5433
硅	-5434
迁	-5435
销	-5436
闷	-5437
【	-5438
偷	-5439
匀	-5440
吊	-5441
哀	-5442
棵	-5443
殿	-5444
竖	-5445
竞	-5446
菜	-5447
鞋	-5448
】	-5449
伴	-5450
允	-5451
帐	-5452
怜	-5453
瞄	-5454
阅	-5455
n	-5456
宿	-5457
弗	-5458
械	-5459
献	-5460
臣	-5461
蹲	-5462
违	-5463
乡	-5464
偶	-5465
啪	-5466
姐	-5467
媒	-5468
恼	-5469
挑	-5470
秦	-5471
舍	-5472
铺	-5473
陌	-5474
页	-5475
促	-5476
噩	-5477
帽	-5478
拐	-5479
瓜	-5480
蜂	-5481
企	-5482
匆	-5483
搜	-5484
疗	-5485
益	-5486
碳	-5487
竹	-5488
笨	-5489
遮	-5490
哼	-5491
啦	-5492
址	-5493
忽	-5494
悠	-5495
拜	-5496
挨	-5497
柜	-5498
祝	-5499
貌	-5500
鸡	-5501
K	-5502
愤	-5503
氦	-5504
砸	-5505
稿	-5506
穹	-5507
裁	-5508
询	-5509
赤	-5510
闹	-5511
患	-5512
慎	-5513
扯	-5514
杉	-5515
枯	-5516
w	-5517
催	-5518
勾	-5519
帕	-5520
惜	-5521
陨	-5522
乏	-5523
剪	-5524
吴	-5525
摘	-5526
浩	-5527
鉴	-5528
僵	-5529
凶	-5530
弥	-5531
滞	-5532
盏	-5533
谓	-5534
轴	-5535
辨	-5536
闲	-5537
额	-5538
y	-5539
伽	-5540
姿	-5541
履	-5542
崖	-5543
州	-5544
恋	-5545
秀	-5546
绵	-5547
肃	-5548
郁	-5549
予	-5550
伪	-5551
凑	-5552
吉	-5553
咬	-5554
嘶	-5555
坛	-5556
拨	-5557
杜	-5558
沫	-5559
浅	-5560
潘	-5561
狭	-5562
甸	-5563
篮	-5564
诡	-5565
匹	-5566
孙	-5567
岗	-5568
扣	-5569
朗	-5570
沟	-5571
渗	-5572
盆	-5573
盈	-5574
聪	-5575
骚	-5576
０	-5577
h	-5578
乌	-5579
侯	-5580
刑	-5581
勇	-5582
岳	-5583
慈	-5584
敲	-5585
瘫	-5586
盐	-5587
签	-5588
粘	-5589
综	-5590
罕	-5591
贯	-5592
H	-5593
U	-5594
哗	-5595
哨	-5596
墅	-5597
斐	-5598
炎	-5599
眩	-5600
耸	-5601
躬	-5602
遣	-5603
陪	-5604
仓	-5605
剂	-5606
割	-5607
堪	-5608
寄	-5609
抹	-5610
捂	-5611
朦	-5612
泛	-5613
碧	-5614
羽	-5615
肚	-5616
胆	-5617
胧	-5618
铅	-5619
锯	-5620
隙	-5621
冈	-5622
抚	-5623
摔	-5624
痴	-5625
篇	-5626
聊	-5627
迈	-5628
饱	-5629
W	-5630
披	-5631
敞	-5632
舟	-5633
蜡	-5634
衷	-5635
袖	-5636
鞠	-5637
黎	-5638
吱	-5639
喘	-5640
惫	-5641
炭	-5642
畏	-5643
缠	-5644
荷	-5645
莎	-5646
铃	-5647
叔	-5648
君	-5649
扇	-5650
抑	-5651
搭	-5652
熊	-5653
狄	-5654
糟	-5655
羊	-5656
谨	-5657
锅	-5658
霞	-5659
兆	-5660
兽	-5661
屁	-5662
忠	-5663
柄	-5664
泉	-5665
溶	-5666
瑞	-5667
疆	-5668
督	-5669
茄	-5670
萍	-5671
黯	-5672
党	-5673
厘	-5674
康	-5675
榴	-5676
润	-5677
疼	-5678
稚	-5679
翅	-5680
脖	-5681
评	-5682
m	-5683
悟	-5684
捷	-5685
棋	-5686
殊	-5687
浴	-5688
澈	-5689
葬	-5690
辩	-5691
锐	-5692
饰	-5693
峻	-5694
杰	-5695
款	-5696
沐	-5697
饕	-5698
骤	-5699
丈	-5700
劝	-5701
坝	-5702
奖	-5703
擎	-5704
辞	-5705
逻	-5706
餮	-5707
％	-5708
J	-5709
仗	-5710
堡	-5711
宪	-5712
徒	-5713
撼	-5714
泄	-5715
煌	-5716
矩	-5717
罚	-5718
艳	-5719
荧	-5720
虹	-5721
蜘	-5722
骂	-5723
∶	-5724
佩	-5725
劣	-5726
勃	-5727
吟	-5728
崇	-5729
朴	-5730
栏	-5731
槽	-5732
爪	-5733
牲	-5734
猫	-5735
皱	-5736
窒	-5737
竭	-5738
绘	-5739
菌	-5740
诱	-5741
邪	-5742
霸	-5743
２	-5744
b	-5745
宜	-5746
旱	-5747
纬	-5748
莲	-5749
蝗	-5750
鲁	-5751
丧	-5752
刹	-5753
剌	-5754
嘿	-5755
彼	-5756
憾	-5757
拼	-5758
摊	-5759
牺	-5760
瑟	-5761
甜	-5762
籍	-5763
褐	-5764
蹈	-5765
骸	-5766
d	-5767
僻	-5768
凄	-5769
刮	-5770
喧	-5771
庆	-5772
捧	-5773
朱	-5774
桨	-5775
盲	-5776
祭	-5777
镶	-5778
柳	-5779
砍	-5780
耻	-5781
誓	-5782
谱	-5783
韦	-5784
颅	-5785
尝	-5786
忌	-5787
掘	-5788
炬	-5789
烬	-5790
甩	-5791
痪	-5792
睹	-5793
窝	-5794
肢	-5795
蔓	-5796
裸	-5797
郊	-5798
饥	-5799
/	-5800
u	-5801
携	-5802
攀	-5803
沸	-5804
津	-5805
渔	-5806
灼	-5807
疾	-5808
蛮	-5809
逊	-5810
逸	-5811
锤	-5812
驻	-5813
g	-5814
乳	-5815
刷	-5816
填	-5817
姚	-5818
嫩	-5819
尚	-5820
峡	-5821
斤	-5822
柯	-5823
档	-5824
洒	-5825
眨	-5826
窃	-5827
绒	-5828
署	-5829
耕	-5830
躁	-5831
p	-5832
仇	-5833
侦	-5834
哑	-5835
惩	-5836
戈	-5837
扳	-5838
捉	-5839
掀	-5840
牵	-5841
祈	-5842
萄	-5843
葡	-5844
裤	-5845
储	-5846
剥	-5847
夸	-5848
恍	-5849
恰	-5850
愚	-5851
晋	-5852
杖	-5853
柴	-5854
棒	-5855
渺	-5856
烫	-5857
燥	-5858
狠	-5859
碗	-5860
糕	-5861
腐	-5862
赖	-5863
钉	-5864
	-5865
倦	-5866
咚	-5867
寸	-5868
炽	-5869
眸	-5870
租	-5871
谅	-5872
邓	-5873
邮	-5874
陋	-5875
刃	-5876
卓	-5877
吵	-5878
噪	-5879
扁	-5880
昔	-5881
氮	-5882
淋	-5883
溪	-5884
祷	-5885
缸	-5886
腊	-5887
趟	-5888
酸	-5889
陛	-5890
傲	-5891
姓	-5892
帷	-5893
廓	-5894
拙	-5895
揭	-5896
暮	-5897
氛	-5898
渠	-5899
灌	-5900
眉	-5901
翔	-5902
臭	-5903
衬	-5904
谜	-5905
辰	-5906
锥	-5907
V	-5908
伐	-5909
坟	-5910
悔	-5911
慨	-5912
椭	-5913
矮	-5914
羞	-5915
胖	-5916
舌	-5917
蠢	-5918
f	-5919
①	-5920
勋	-5921
卸	-5922
妇	-5923
寿	-5924
徽	-5925
曙	-5926
欺	-5927
溅	-5928
滔	-5929
牧	-5930
瞎	-5931
纱	-5932
翘	-5933
蝶	-5934
螳	-5935
赢	-5936
踱	-5937
遵	-5938
册	-5939
卵	-5940
噼	-5941
墟	-5942
娇	-5943
拳	-5944
昂	-5945
歉	-5946
穴	-5947
绚	-5948
罢	-5949
螂	-5950
*	-5951
Z	-5952
伍	-5953
哄	-5954
嘻	-5955
川	-5956
巾	-5957
廷	-5958
怨	-5959
悦	-5960
拂	-5961
斧	-5962
洼	-5963
滤	-5964
玄	-5965
畅	-5966
癌	-5967
瞳	-5968
碌	-5969
肌	-5970
誉	-5971
豆	-5972
仁	-5973
俱	-5974
卢	-5975
叉	-5976
嫌	-5977
帘	-5978
帜	-5979
弓	-5980
愣	-5981
挪	-5982
泳	-5983
烤	-5984
猪	-5985
砖	-5986
秩	-5987
绩	-5988
肺	-5989
腹	-5990
衫	-5991
陵	-5992
顽	-5993
魏	-5994
仙	-5995
俗	-5996
俯	-5997
卧	-5998
咕	-5999
咽	-6000
婆	-6001
宅	-6002
愉	-6003
昼	-6004
汹	-6005
沌	-6006
淘	-6007
焚	-6008
牢	-6009
盼	-6010
糙	-6011
胳	-6012
蒂	-6013
趋	-6014
颠	-6015
魄	-6016
３	-6017
亏	-6018
凸	-6019
剖	-6020
卑	-6021
呕	-6022
咔	-6023
啤	-6024
壕	-6025
奢	-6026
宾	-6027
桩	-6028
涨	-6029
胃	-6030
膝	-6031
蝴	-6032
蠕	-6033
郎	-6034
霖	-6035
４	-6036
丘	-6037
削	-6038
叮	-6039
呸	-6040
币	-6041
枕	-6042
瀑	-6043
番	-6044
耽	-6045
腕	-6046
蔑	-6047
褚	-6048
览	-6049
赌	-6050
偿	-6051
傍	-6052
删	-6053
吻	-6054
啡	-6055
嗓	-6056
寓	-6057
屑	-6058
斥	-6059
棕	-6060
泣	-6061
浊	-6062
涵	-6063
痒	-6064
笛	-6065
纠	-6066
缆	-6067
胚	-6068
膊	-6069
菇	-6070
蟹	-6071
v	-6072
×	-6073
冠	-6074
厨	-6075
咖	-6076
嘟	-6077
嘲	-6078
壤	-6079
昆	-6080
曳	-6081
栅	-6082
栓	-6083
溜	-6084
溢	-6085
硕	-6086
祥	-6087
绞	-6088
蚀	-6089
谐	-6090
逆	-6091
郭	-6092
饼	-6093
鹅	-6094
兄	-6095
卿	-6096
呗	-6097
唇	-6098
嗨	-6099
奉	-6100
孕	-6101
屈	-6102
愈	-6103
捞	-6104
搏	-6105
橡	-6106
涯	-6107
淌	-6108
犬	-6109
矛	-6110
蓉	-6111
蘑	-6112
虎	-6113
袍	-6114
豁	-6115
轿	-6116
镀	-6117
驳	-6118
魅	-6119
鹰	-6120
８	-6121
嚼	-6122
妒	-6123
巷	-6124
彗	-6125
株	-6126
桃	-6127
桔	-6128
歇	-6129
沧	-6130
沾	-6131
湮	-6132
湾	-6133
犁	-6134
粼	-6135
纣	-6136
纲	-6137
脊	-6138
讽	-6139
诸	-6140
谎	-6141
贡	-6142
迸	-6143
锈	-6144
阱	-6145
黛	-6146
Y	-6147
丑	-6148
劫	-6149
吼	-6150
堤	-6151
岭	-6152
拢	-6153
拷	-6154
梁	-6155
棚	-6156
汁	-6157
泼	-6158
涛	-6159
滋	-6160
炼	-6161
爽	-6162
玲	-6163
琼	-6164
芽	-6165
辱	-6166
遂	-6167
镍	-6168
饲	-6169
凹	-6170
咨	-6171
啥	-6172
垩	-6173
奄	-6174
尤	-6175
拓	-6176
挽	-6177
摞	-6178
栩	-6179
沮	-6180
疫	-6181
磅	-6182
蚊	-6183
衔	-6184
跋	-6185
邃	-6186
闯	-6187
闸	-6188
驰	-6189
骄	-6190
－	-6191
勉	-6192
咳	-6193
嘀	-6194
嫉	-6195
徐	-6196
慕	-6197
捅	-6198
椐	-6199
歪	-6200
秃	-6201
簿	-6202
翠	-6203
肠	-6204
蓬	-6205
谣	-6206
跪	-6207
鄙	-6208
钝	-6209
锚	-6210
侈	-6211
兢	-6212
兮	-6213
兼	-6214
剔	-6215
厢	-6216
哒	-6217
囊	-6218
幔	-6219
怯	-6220
押	-6221
揪	-6222
桦	-6223
榄	-6224
橄	-6225
泻	-6226
浇	-6227
漉	-6228
潭	-6229
盾	-6230
磷	-6231
缀	-6232
耍	-6233
薇	-6234
蛀	-6235
讥	-6236
购	-6237
贸	-6238
贺	-6239
赋	-6240
赠	-6241
辣	-6242
迄	-6243
鑫	-6244
铭	-6245
锢	-6246
锹	-6247
霉	-6248
鼎	-6249
°	-6250
咧	-6251
售	-6252
垮	-6253
尬	-6254
尴	-6255
廉	-6256
恭	-6257
惚	-6258
拄	-6259
拚	-6260
搅	-6261
敦	-6262
棍	-6263
橘	-6264
氏	-6265
眶	-6266
筋	-6267
聋	-6268
肿	-6269
腔	-6270
赔	-6271
邀	-6272
雇	-6273
k	-6274
乞	-6275
亭	-6276
劈	-6277
励	-6278
勺	-6279
匙	-6280
县	-6281
叙	-6282
吁	-6283
咄	-6284
嗅	-6285
崭	-6286
扛	-6287
捆	-6288
捏	-6289
攫	-6290
棺	-6291
涩	-6292
硫	-6293
穆	-6294
篝	-6295
肮	-6296
萤	-6297
蓄	-6298
趁	-6299
踢	-6300
阁	-6301
霜	-6302
]	-6303
x	-6304
仑	-6305
咆	-6306
咐	-6307
嗒	-6308
垫	-6309
奴	-6310
妄	-6311
峭	-6312
拎	-6313
掷	-6314
攥	-6315
棱	-6316
欠	-6317
灶	-6318
琐	-6319
瓷	-6320
甄	-6321
粹	-6322
羡	-6323
翁	-6324
腥	-6325
舔	-6326
芬	-6327
藤	-6328
衍	-6329
觑	-6330
诊	-6331
谦	-6332
账	-6333
逮	-6334
钓	-6335
鞭	-6336
飓	-6337
饶	-6338
@	-6339
佑	-6340
喋	-6341
夷	-6342
屠	-6343
嵌	-6344
廖	-6345
惕	-6346
惹	-6347
搂	-6348
晦	-6349
泽	-6350
涕	-6351
涸	-6352
淇	-6353
澡	-6354
炫	-6355
焉	-6356
焊	-6357
礴	-6358
祸	-6359
稠	-6360
窜	-6361
簇	-6362
绰	-6363
绽	-6364
脾	-6365
萌	-6366
藻	-6367
虾	-6368
蛙	-6369
蜴	-6370
贪	-6371
蹦	-6372
辅	-6373
５	-6374
[	-6375
丸	-6376
叭	-6377
嗽	-6378
嘱	-6379
垛	-6380
壶	-6381
妖	-6382
姻	-6383
尿	-6384
屯	-6385
憔	-6386
拧	-6387
曦	-6388
歧	-6389
殖	-6390
汰	-6391
泵	-6392
渍	-6393
滥	-6394
狙	-6395
眯	-6396
瞒	-6397
缚	-6398
肝	-6399
舆	-6400
蜜	-6401
蟒	-6402
诵	-6403
谍	-6404
赚	-6405
赡	-6406
践	-6407
遏	-6408
钥	-6409
霓	-6410
颈	-6411
骼	-6412
鸽	-6413
鹿	-6414
／	-6415
～	-6416
仆	-6417
俘	-6418
僚	-6419
勘	-6420
哮	-6421
嚓	-6422
塘	-6423
奈	-6424
媳	-6425
悍	-6426
悴	-6427
捣	-6428
掐	-6429
斓	-6430
旺	-6431
栗	-6432
榻	-6433
汐	-6434
添	-6435
狮	-6436
甘	-6437
硝	-6438
碱	-6439
窖	-6440
绊	-6441
绑	-6442
绷	-6443
腻	-6444
赴	-6445
蹬	-6446
逗	-6447
铝	-6448
~	-6449
侣	-6450
叨	-6451
呓	-6452
哺	-6453
妥	-6454
媚	-6455
巅	-6456
巍	-6457
巳	-6458
憎	-6459
抄	-6460
抡	-6461
拱	-6462
搁	-6463
搐	-6464
昌	-6465
昧	-6466
朽	-6467
栽	-6468
梧	-6469
煮	-6470
熨	-6471
畸	-6472
窟	-6473
聆	-6474
脂	-6475
芦	-6476
董	-6477
袅	-6478
订	-6479
趴	-6480
蹄	-6481
雳	-6482
靴	-6483
鲨	-6484
丫	-6485
冕	-6486
函	-6487
刊	-6488
咀	-6489
咣	-6490
哆	-6491
嗦	-6492
嘘	-6493
噬	-6494
屉	-6495
巫	-6496
忡	-6497
愁	-6498
戎	-6499
扮	-6500
拇	-6501
揉	-6502
擅	-6503
斩	-6504
旨	-6505
桅	-6506
橙	-6507
毙	-6508
沽	-6509
涟	-6510
湍	-6511
狞	-6512
璀	-6513
璨	-6514
瘠	-6515
盗	-6516
瞥	-6517
簸	-6518
绣	-6519
舵	-6520
蜗	-6521
蝇	-6522
裕	-6523
褂	-6524
迂	-6525
陡	-6526
颂	-6527
黏	-6528
_	-6529
Ⅲ	-6530
侥	-6531
冗	-6532
凤	-6533
吩	-6534
咋	-6535
唾	-6536
啃	-6537
啼	-6538
喇	-6539
喉	-6540
噢	-6541
嚷	-6542
垒	-6543
妓	-6544
娱	-6545
寝	-6546
寡	-6547
庙	-6548
忏	-6549
拘	-6550
撩	-6551
暑	-6552
杠	-6553
柏	-6554
橇	-6555
淀	-6556
澜	-6557
烙	-6558
熵	-6559
猩	-6560
猿	-6561
瓣	-6562
瞰	-6563
碾	-6564
窥	-6565
肴	-6566
虔	-6567
诬	-6568
踩	-6569
踹	-6570
辜	-6571
逾	-6572
酬	-6573
钩	-6574
钳	-6575
铲	-6576
镖	-6577
阈	-6578
阮	-6579
雀	-6580
霹	-6581
鞘	-6582
鳞	-6583
鸢	-6584
+	-6585
|	-6586
α	-6587
乒	-6588
乓	-6589
乖	-6590
傅	-6591
匕	-6592
卜	-6593
噜	-6594
坞	-6595
婪	-6596
孟	-6597
屿	-6598
崎	-6599
崛	-6600
恙	-6601
悸	-6602
惬	-6603
揍	-6604
揽	-6605
撇	-6606
撬	-6607
晒	-6608
柿	-6609
梳	-6610
殷	-6611
渣	-6612
瀚	-6613
燕	-6614
猝	-6615
珊	-6616
珥	-6617
睫	-6618
磺	-6619
禽	-6620
绅	-6621
聘	-6622
荐	-6623
蔬	-6624
蜥	-6625
詹	-6626
讳	-6627
钞	-6628
铸	-6629
阀	-6630
隶	-6631
雹	-6632
颓	-6633
龟	-6634
Ａ	-6635
Ⅱ	-6636
乃	-6637
亢	-6638
侍	-6639
兜	-6640
募	-6641
吾	-6642
噗	-6643
囱	-6644
堕	-6645
孵	-6646
宰	-6647
寺	-6648
弛	-6649
捶	-6650
敛	-6651
曜	-6652
桐	-6653
棉	-6654
槛	-6655
氨	-6656
沦	-6657
淤	-6658
漪	-6659
濒	-6660
炊	-6661
炒	-6662
疮	-6663
睿	-6664
礁	-6665
稼	-6666
稽	-6667
筹	-6668
肖	-6669
脯	-6670
荫	-6671
莉	-6672
蔚	-6673
虐	-6674
蜷	-6675
讶	-6676
跺	-6677
逢	-6678
酱	-6679
酿	-6680
雯	-6681
馅	-6682
馨	-6683
髓	-6684
黝	-6685
Q	-6686
丹	-6687
俊	-6688
俺	-6689
冀	-6690
凳	-6691
叽	-6692
呛	-6693
呤	-6694
唔	-6695
唬	-6696
垄	-6697
垦	-6698
奸	-6699
寞	-6700
巢	-6701
庸	-6702
徊	-6703
徘	-6704
怡	-6705
恳	-6706
悯	-6707
惶	-6708
憋	-6709
懈	-6710
挛	-6711
搓	-6712
朕	-6713
栈	-6714
梢	-6715
汤	-6716
泞	-6717
洽	-6718
浏	-6719
浦	-6720
涤	-6721
溯	-6722
潇	-6723
煎	-6724
熏	-6725
狡	-6726
狰	-6727
珑	-6728
痉	-6729
瘩	-6730
瘾	-6731
眺	-6732
睽	-6733
瞧	-6734
瞩	-6735
秆	-6736
稻	-6737
窑	-6738
箍	-6739
簧	-6740
绎	-6741
肋	-6742
芝	-6743
苹	-6744
萎	-6745
葫	-6746
蚓	-6747
蚯	-6748
褶	-6749
赎	-6750
辽	-6751
逛	-6752
铀	-6753
锡	-6754
霆	-6755
丐	-6756
倡	-6757
兀	-6758
兑	-6759
冶	-6760
刨	-6761
剐	-6762
匪	-6763
厕	-6764
咸	-6765
嗜	-6766
嘈	-6767
墩	-6768
夭	-6769
姬	-6770
婉	-6771
宠	-6772
恕	-6773
惰	-6774
愧	-6775
戚	-6776
戛	-6777
拣	-6778
挟	-6779
捐	-6780
捡	-6781
晤	-6782
栖	-6783
棘	-6784
楠	-6785
榈	-6786
槟	-6787
檐	-6788
毅	-6789
汾	-6790
沥	-6791
涅	-6792
湛	-6793
滨	-6794
漾	-6795
疙	-6796
睬	-6797
瞻	-6798
矣	-6799
砌	-6800
碟	-6801
秤	-6802
秸	-6803
窿	-6804
箔	-6805
粥	-6806
粪	-6807
纂	-6808
缭	-6809
肆	-6810
舀	-6811
茂	-6812
菱	-6813
薪	-6814
蜻	-6815
裙	-6816
谴	-6817
豚	-6818
贼	-6819
轧	-6820
辟	-6821
酪	-6822
陕	-6823
韵	-6824
颇	-6825
馒	-6826
驴	-6827
鸭	-6828
６	-6829
７	-6830
―	-6831
乾	-6832
仲	-6833
吮	-6834
呐	-6835
咙	-6836
咝	-6837
哎	-6838
哩	-6839
嘤	-6840
嚣	-6841
囔	-6842
囚	-6843
壑	-6844
娶	-6845
嫡	-6846
寥	-6847
岂	-6848
幂	-6849
愕	-6850
扉	-6851
挫	-6852
撮	-6853
暇	-6854
梵	-6855
椒	-6856
楂	-6857
槐	-6858
氯	-6859
沼	-6860
涎	-6861
淫	-6862
溉	-6863
溺	-6864
漓	-6865
炯	-6866
烷	-6867
烹	-6868
煞	-6869
熬	-6870
犀	-6871
猖	-6872
睑	-6873
矗	-6874
矢	-6875
砰	-6876
砾	-6877
税	-6878
缎	-6879
缰	-6880
耿	-6881
肾	-6882
膏	-6883
舶	-6884
茅	-6885
茨	-6886
荆	-6887
蕉	-6888
蕊	-6889
蕴	-6890
藉	-6891
蘸	-6892
蚱	-6893
蜇	-6894
蜒	-6895
褪	-6896
诣	-6897
诧	-6898
诲	-6899
贩	-6900
跚	-6901
蹒	-6902
醺	-6903
镁	-6904
霭	-6905
顷	-6906
颊	-6907
鹏	-6908
鹤	-6909
９	-6910
Ｂ	-6911
ｗ	-6912
}	-6913
ω	-6914
伶	-6915
佐	-6916
偎	-6917
儒	-6918
兔	-6919
冉	-6920
刁	-6921
匣	-6922
吭	-6923
呷	-6924
呻	-6925
咦	-6926
咫	-6927
咯	-6928
哽	-6929
啾	-6930
噎	-6931
嚎	-6932
妆	-6933
娟	-6934
婊	-6935
嫁	-6936
屎	-6937
岑	-6938
幺	-6939
弩	-6940
彰	-6941
怠	-6942
扼	-6943
抉	-6944
拭	-6945
拴	-6946
拽	-6947
捻	-6948
搀	-6949
敷	-6950
昭	-6951
晖	-6952
枢	-6953
栋	-6954
梅	-6955
榨	-6956
橱	-6957
渎	-6958
漩	-6959
炕	-6960
炖	-6961
焕	-6962
猴	-6963
瑕	-6964
瑙	-6965
瑚	-6966
畔	-6967
疚	-6968
瘁	-6969
磐	-6970
磕	-6971
筛	-6972
筝	-6973
篡	-6974
籁	-6975
缢	-6976
缤	-6977
缴	-6978
翩	-6979
翰	-6980
耙	-6981
肪	-6982
脐	-6983
腋	-6984
苇	-6985
苛	-6986
茸	-6987
萦	-6988
袒	-6989
裔	-6990
褛	-6991
褥	-6992
觅	-6993
诈	-6994
诽	-6995
谊	-6996
谤	-6997
谬	-6998
豹	-6999
贾	-7000
赐	-7001
趾	-7002
蹭	-7003
轩	-7004
辙	-7005
钦	-7006
钾	-7007
铐	-7008
锄	-7009
锦	-7010
镰	-7011
阐	-7012
霄	-7013
颖	-7014
饵	-7015
驼	-7016
骷	-7017
髅	-7018
魁	-7019
鸦	-7020
＜	-7021
Ｙ	-7022
#	-7023
Ⅰ	-7024
②	-7025
〈	-7026
〉	-7027
丙	-7028
亥	-7029
亩	-7030
侃	-7031
侠	-7032
俑	-7033
僧	-7034
凰	-7035
刽	-7036
劾	-7037
匠	-7038
匿	-7039
卉	-7040
卒	-7041
厩	-7042
厮	-7043
吝	-7044
嘎	-7045
嘣	-7046
坯	-7047
埂	-7048
墒	-7049
契	-7050
奠	-7051
妃	-7052
妨	-7053
姜	-7054
娅	-7055
孝	-7056
孽	-7057
宵	-7058
寐	-7059
寨	-7060
屡	-7061
岔	-7062
峙	-7063
峨	-7064
帚	-7065
弈	-7066
弋	-7067
恃	-7068
悖	-7069
悚	-7070
悻	-7071
惦	-7072
憧	-7073
憨	-7074
憬	-7075
懊	-7076
戟	-7077
扒	-7078
抠	-7079
抿	-7080
拌	-7081
挚	-7082
挠	-7083
捎	-7084
掰	-7085
揶	-7086
斟	-7087
昵	-7088
曝	-7089
朔	-7090
杭	-7091
柬	-7092
椎	-7093
槌	-7094
殴	-7095
汛	-7096
沁	-7097
沓	-7098
湘	-7099
溏	-7100
潦	-7101
澄	-7102
犷	-7103
琢	-7104
痹	-7105
瘙	-7106
瘤	-7107
癖	-7108
皆	-7109
皑	-7110
皙	-7111
瞟	-7112
矫	-7113
祠	-7114
稣	-7115
窍	-7116
竿	-7117
篓	-7118
粱	-7119
羁	-7120
羲	-7121
胫	-7122
芳	-7123
菊	-7124
萝	-7125
萧	-7126
葛	-7127
蔫	-7128
蛾	-7129
蜿	-7130
蝈	-7131
诫	-7132
贞	-7133
贤	-7134
辖	-7135
郝	-7136
鄂	-7137
酌	-7138
酗	-7139
酵	-7140
钙	-7141
镐	-7142
阂	-7143
靖	-7144
韧	-7145
颐	-7146
颔	-7147
驭	-7148
骇	-7149
骰	-7150
鲍	-7151
鳍	-7152
鸿	-7153
鹄	-7154
］	-7155
=	-7156
`	-7157
q	-7158
ì	-7159
ò	-7160
℃	-7161
↑	-7162
亘	-7163
亦	-7164
亵	-7165
仨	-7166
佣	-7167
佬	-7168
侏	-7169
俏	-7170
俭	-7171
倔	-7172
倪	-7173
冽	-7174
凿	-7175
剃	-7176
剽	-7177
剿	-7178
勿	-7179
厥	-7180
叼	-7181
唠	-7182
啐	-7183
啬	-7184
喏	-7185
喳	-7186
嗤	-7187
坷	-7188
埔	-7189
妞	-7190
娩	-7191
嬉	-7192
嶙	-7193
庶	-7194
彪	-7195
惋	-7196
惘	-7197
惮	-7198
惺	-7199
慷	-7200
戮	-7201
戳	-7202
攘	-7203
旬	-7204
書	-7205
椰	-7206
楔	-7207
榕	-7208
殆	-7209
毡	-7210
汩	-7211
浙	-7212
涓	-7213
渤	-7214
漯	-7215
澎	-7216
烘	-7217
熙	-7218
燎	-7219
牡	-7220
狈	-7221
狩	-7222
猾	-7223
瑶	-7224
畜	-7225
疤	-7226
瘪	-7227
瘸	-7228
盎	-7229
盥	-7230
睦	-7231
矸	-7232
砂	-7233
砚	-7234
碣	-7235
碴	-7236
筷	-7237
紊	-7238
網	-7239
纭	-7240
缄	-7241
腈	-7242
腮	-7243
芥	-7244
芭	-7245
苔	-7246
苟	-7247
茎	-7248
茬	-7249
莺	-7250
葱	-7251
葵	-7252
蕾	-7253
薛	-7254
薯	-7255
蚕	-7256
衅	-7257
袱	-7258
褴	-7259
诀	-7260
贱	-7261
赘	-7262
跤	-7263
踵	-7264
迭	-7265
邱	-7266
郡	-7267
酣	-7268
钧	-7269
铠	-7270
陇	-7271
隋	-7272
隘	-7273
雏	-7274
霏	-7275
霾	-7276
靡	-7277
韩	-7278
颁	-7279
颚	-7280
骏	-7281
骡	-7282
髂	-7283
髻	-7284
鬃	-7285
鳄	-7286
鼾	-7287
Ｃ	-7288
&	-7289
ī	-7290
ō	-7291
ū	-7292
ǎ	-7293
ǚ	-7294
β	-7295
ε	-7296
А	-7297
Б	-7298
Г	-7299
Д	-7300
Н	-7301
Ю	-7302
с	-7303
「	-7304
乍	-7305
仞	-7306
伺	-7307
佰	-7308
侨	-7309
侬	-7310
侮	-7311
冤	-7312
刍	-7313
券	-7314
剁	-7315
剜	-7316
匍	-7317
卞	-7318
卦	-7319
吠	-7320
咂	-7321
咪	-7322
哝	-7323
哟	-7324
哧	-7325
啜	-7326
啷	-7327
喑	-7328
喽	-7329
嗖	-7330
嗝	-7331
嘁	-7332
嘚	-7333
坊	-7334
垅	-7335
垠	-7336
垢	-7337
埙	-7338
夙	-7339
姣	-7340
娄	-7341
娓	-7342
娲	-7343
娴	-7344
娼	-7345
婷	-7346
嫖	-7347
嫣	-7348
孺	-7349
宕	-7350
屹	-7351
岘	-7352
岬	-7353
峦	-7354
巩	-7355
弘	-7356
弭	-7357
彭	-7358
徙	-7359
忒	-7360
忪	-7361
怅	-7362
怆	-7363
怏	-7364
恤	-7365
恪	-7366
恬	-7367
恻	-7368
惆	-7369
抨	-7370
拈	-7371
捍	-7372
掂	-7373
掬	-7374
掺	-7375
掾	-7376
揣	-7377
搔	-7378
搡	-7379
撰	-7380
攒	-7381
敝	-7382
斋	-7383
旭	-7384
昀	-7385
昕	-7386
晌	-7387
暄	-7388
杏	-7389
柃	-7390
柠	-7391
桓	-7392
桢	-7393
楞	-7394
樊	-7395
樱	-7396
檬	-7397
毋	-7398
氖	-7399
氰	-7400
汀	-7401
沛	-7402
泾	-7403
淅	-7404
淑	-7405
淙	-7406
渭	-7407
渲	-7408
湃	-7409
滂	-7410
炙	-7411
煸	-7412
熠	-7413
牒	-7414
犄	-7415
犸	-7416
獠	-7417
珂	-7418
琉	-7419
璧	-7420
瓮	-7421
甭	-7422
癫	-7423
皿	-7424
睐	-7425
矶	-7426
砝	-7427
砺	-7428
碛	-7429
磋	-7430
祟	-7431
秉	-7432
穗	-7433
笆	-7434
筏	-7435
筐	-7436
篆	-7437
篱	-7438
籽	-7439
絮	-7440
纰	-7441
绸	-7442
缅	-7443
缈	-7444
缥	-7445
羔	-7446
翎	-7447
聂	-7448
肘	-7449
胴	-7450
胺	-7451
脓	-7452
腺	-7453
芜	-7454
莽	-7455
菅	-7456
蒜	-7457
蔼	-7458
虏	-7459
蚪	-7460
蛎	-7461
蛐	-7462
蜓	-7463
蜚	-7464
蝉	-7465
蝠	-7466
螵	-7467
蟑	-7468
袄	-7469
袜	-7470
裳	-7471
襟	-7472
讪	-7473
讼	-7474
诏	-7475
诛	-7476
谔	-7477
贬	-7478
贿	-7479
赂	-7480
踞	-7481
踮	-7482
蹿	-7483
轭	-7484
辎	-7485
辘	-7486
辫	-7487
迢	-7488
逍	-7489
遁	-7490
酋	-7491
酝	-7492
酰	-7493
酶	-7494
釉	-7495
钛	-7496
铂	-7497
铆	-7498
铒	-7499
铛	-7500
铰	-7501
锌	-7502
锣	-7503
锨	-7504
锰	-7505
锵	-7506
锻	-7507
镂	-7508
镌	-7509
阙	-7510
霎	-7511
靓	-7512
韶	-7513
飒	-7514
飕	-7515
饨	-7516
饪	-7517
饺	-7518
馈	-7519
骋	-7520
髦	-7521
鬈	-7522
鬓	-7523
鲤	-7524
鳃	-7525
鸥	-7526
鹫	-7527
黔	-7528
鼍	-7529
鼐	-7530
＋	-7531
Ｒ	-7532
［	-7533
j	-7534
z	-7535
 	-7536
±	-7537
ü	-7538
ǐ	-7539
ǔ	-7540
Ζ	-7541
γ	-7542
π	-7543
√	-7544
∫	-7545
⊥	-7546
〕	-7547
丄	-7548
乙	-7549
仃	-7550
仕	-7551
仝	-7552
仟	-7553
伎	-7554
佼	-7555
侄	-7556
俐	-7557
倩	-7558
倭	-7559
债	-7560
偬	-7561
凋	-7562
凛	-7563
匈	-7564
匡	-7565
匮	-7566
匾	-7567
吋	-7568
呲	-7569
咛	-7570
哔	-7571
唏	-7572
唪	-7573
唷	-7574
啕	-7575
啧	-7576
啮	-7577
啰	-7578
喀	-7579
喵	-7580
嗑	-7581
嗔	-7582
嗣	-7583
嘉	-7584
嘭	-7585
嘹	-7586
噶	-7587
嚏	-7588
圪	-7589
坂	-7590
垣	-7591
夯	-7592
妩	-7593
妫	-7594
姗	-7595
娑	-7596
婶	-7597
媲	-7598
媸	-7599
嬴	-7600
孬	-7601
孰	-7602
孱	-7603
宛	-7604
宦	-7605
屐	-7606
岌	-7607
岱	-7608
峋	-7609
峥	-7610
崔	-7611
崴	-7612
嵘	-7613
帖	-7614
帧	-7615
幄	-7616
幌	-7617
庥	-7618
彤	-7619
彦	-7620
忻	-7621
怍	-7622
怦	-7623
怫	-7624
恣	-7625
恫	-7626
恺	-7627
悼	-7628
惭	-7629
愠	-7630
懦	-7631
戾	-7632
扦	-7633
挎	-7634
挝	-7635
掇	-7636
掣	-7637
掸	-7638
掻	-7639
掼	-7640
揄	-7641
摒	-7642
摹	-7643
撂	-7644
撖	-7645
撵	-7646
擀	-7647
擂	-7648
攸	-7649
斌	-7650
旮	-7651
旯	-7652
晔	-7653
晗	-7654
晟	-7655
晷	-7656
晾	-7657
暧	-7658
札	-7659
杈	-7660
杳	-7661
枞	-7662
枫	-7663
枷	-7664
柞	-7665
栉	-7666
栎	-7667
桁	-7668
桎	-7669
桠	-7670
梗	-7671
楷	-7672
榆	-7673
榔	-7674
榭	-7675
槲	-7676
樟	-7677
樽	-7678
檀	-7679
殃	-7680
殒	-7681
殓	-7682
殚	-7683
殡	-7684
氓	-7685
氕	-7686
氘	-7687
氚	-7688
氟	-7689
汕	-7690
汨	-7691
汲	-7692
沱	-7693
泌	-7694
涣	-7695
淳	-7696
渥	-7697
溴	-7698
滇	-7699
漱	-7700
潞	-7701
潢	-7702
濑	-7703
灸	-7704
焙	-7705
煅	-7706
煦	-7707
爵	-7708
狍	-7709
狐	-7710
狸	-7711
猥	-7712
珀	-7713
琥	-7714
瓢	-7715
甫	-7716
畴	-7717
疵	-7718
痊	-7719
痰	-7720
瘟	-7721
瘴	-7722
癸	-7723
皈	-7724
皓	-7725
皲	-7726
盹	-7727
眷	-7728
瞅	-7729
瞌	-7730
矽	-7731
砥	-7732
硼	-7733
碘	-7734
碜	-7735
磊	-7736
礅	-7737
祀	-7738
祁	-7739
祗	-7740
祛	-7741
祯	-7742
禾	-7743
秧	-7744
秽	-7745
穑	-7746
窕	-7747
窘	-7748
竺	-7749
笠	-7750
笳	-7751
粟	-7752
粽	-7753
糅	-7754
纺	-7755
绌	-7756
绛	-7757
绢	-7758
绶	-7759
缉	-7760
缜	-7761
缨	-7762
罄	-7763
罔	-7764
羚	-7765
羟	-7766
羸	-7767
羹	-7768
翱	-7769
耘	-7770
肇	-7771
肛	-7772
肼	-7773
胯	-7774
胰	-7775
腑	-7776
腱	-7777
膘	-7778
臃	-7779
臆	-7780
臼	-7781
舢	-7782
芎	-7783
苑	-7784
苞	-7785
苯	-7786
苷	-7787
茵	-7788
茹	-7789
荤	-7790
莅	-7791
莓	-7792
莞	-7793
菠	-7794
菩	-7795
萃	-7796
葺	-7797
蒲	-7798
蒿	-7799
蔗	-7800
蔡	-7801
蔷	-7802
藓	-7803
藕	-7804
蚌	-7805
蚜	-7806
蚣	-7807
蚤	-7808
蛆	-7809
蛟	-7810
蛤	-7811
蛸	-7812
蜈	-7813
蝌	-7814
蝙	-7815
螃	-7816
蟆	-7817
蟾	-7818
裆	-7819
裱	-7820
褒	-7821
褓	-7822
襁	-7823
覃	-7824
誊	-7825
譬	-7826
讷	-7827
诃	-7828
诠	-7829
谑	-7830
谙	-7831
谧	-7832
谩	-7833
谭	-7834
谵	-7835
豺	-7836
貉	-7837
贷	-7838
贻	-7839
赁	-7840
赅	-7841
赦	-7842
跻	-7843
踊	-7844
踌	-7845
踝	-7846
蹩	-7847
蹼	-7848
蹾	-7849
轶	-7850
辄	-7851
辗	-7852
迥	-7853
迦	-7854
遛	-7855
遴	-7856
邑	-7857
邯	-7858
邵	-7859
邸	-7860
鄢	-7861
酉	-7862
醋	-7863
醛	-7864
醣	-7865
钎	-7866
钒	-7867
钯	-7868
钴	-7869
铣	-7870
铬	-7871
铵	-7872
锉	-7873
锭	-7874
镊	-7875
镙	-7876
镝	-7877
镣	-7878
镪	-7879
闩	-7880
闰	-7881
闺	-7882
阑	-7883
阜	-7884
阡	-7885
陀	-7886
隅	-7887
雁	-7888
雩	-7889
靳	-7890
鞍	-7891
颀	-7892
颢	-7893
颧	-7894
飙	-7895
飚	-7896
馄	-7897
馊	-7898
馋	-7899
馍	-7900
馑	-7901
驮	-7902
驯	-7903
驹	-7904
骁	-7905
髀	-7906
髟	-7907
鱿	-7908
鲱	-7909
鹊	-7910
鹜	-7911
龛	-7912
	-7913
	-7914
	-7915
	-7916
	-7917
	-7918
	-7919
	-7920
	-7921
	-7922
	-7923
＂	-7924
＊	-7925
Ｆ	-7926
Ｇ	-7927
Ｊ	-7928
Ｌ	-7929
Ｓ	-7930
Ｗ	-7931
ｑ	-7932
